#include "magic_wand_model_data.hpp"

/* Keep model aligned to 8 bytes to guarantee aligned 64-bit accesses. */
alignas(8) const unsigned char g_magic_wand_model_data[] = {
  0x1c, 0x00, 0x00, 0x00, 0x54, 0x46, 0x4c, 0x33, 0x14, 0x00, 0x20, 0x00,
  0x1c, 0x00, 0x18, 0x00, 0x14, 0x00, 0x10, 0x00, 0x0c, 0x00, 0x00, 0x00,
  0x08, 0x00, 0x04, 0x00, 0x14, 0x00, 0x00, 0x00, 0x1c, 0x00, 0x00, 0x00,
  0x88, 0x00, 0x00, 0x00, 0xe0, 0x00, 0x00, 0x00, 0x7c, 0x45, 0x00, 0x00,
  0x8c, 0x45, 0x00, 0x00, 0xe8, 0x4f, 0x00, 0x00, 0x03, 0x00, 0x00, 0x00,
  0x01, 0x00, 0x00, 0x00, 0x04, 0x00, 0x00, 0x00, 0x7a, 0xb9, 0xff, 0xff,
  0x0c, 0x00, 0x00, 0x00, 0x1c, 0x00, 0x00, 0x00, 0x38, 0x00, 0x00, 0x00,
  0x0f, 0x00, 0x00, 0x00, 0x73, 0x65, 0x72, 0x76, 0x69, 0x6e, 0x67, 0x5f,
  0x64, 0x65, 0x66, 0x61, 0x75, 0x6c, 0x74, 0x00, 0x01, 0x00, 0x00, 0x00,
  0x04, 0x00, 0x00, 0x00, 0x94, 0xff, 0xff, 0xff, 0x11, 0x00, 0x00, 0x00,
  0x04, 0x00, 0x00, 0x00, 0x07, 0x00, 0x00, 0x00, 0x64, 0x65, 0x6e, 0x73,
  0x65, 0x5f, 0x31, 0x00, 0x01, 0x00, 0x00, 0x00, 0x04, 0x00, 0x00, 0x00,
  0x5a, 0xba, 0xff, 0xff, 0x04, 0x00, 0x00, 0x00, 0x0c, 0x00, 0x00, 0x00,
  0x63, 0x6f, 0x6e, 0x76, 0x32, 0x64, 0x5f, 0x69, 0x6e, 0x70, 0x75, 0x74,
  0x00, 0x00, 0x00, 0x00, 0x02, 0x00, 0x00, 0x00, 0x34, 0x00, 0x00, 0x00,
  0x04, 0x00, 0x00, 0x00, 0xdc, 0xff, 0xff, 0xff, 0x14, 0x00, 0x00, 0x00,
  0x04, 0x00, 0x00, 0x00, 0x13, 0x00, 0x00, 0x00, 0x43, 0x4f, 0x4e, 0x56,
  0x45, 0x52, 0x53, 0x49, 0x4f, 0x4e, 0x5f, 0x4d, 0x45, 0x54, 0x41, 0x44,
  0x41, 0x54, 0x41, 0x00, 0x08, 0x00, 0x0c, 0x00, 0x08, 0x00, 0x04, 0x00,
  0x08, 0x00, 0x00, 0x00, 0x13, 0x00, 0x00, 0x00, 0x04, 0x00, 0x00, 0x00,
  0x13, 0x00, 0x00, 0x00, 0x6d, 0x69, 0x6e, 0x5f, 0x72, 0x75, 0x6e, 0x74,
  0x69, 0x6d, 0x65, 0x5f, 0x76, 0x65, 0x72, 0x73, 0x69, 0x6f, 0x6e, 0x00,
  0x15, 0x00, 0x00, 0x00, 0x98, 0x44, 0x00, 0x00, 0x90, 0x44, 0x00, 0x00,
  0x60, 0x44, 0x00, 0x00, 0x10, 0x44, 0x00, 0x00, 0x80, 0x42, 0x00, 0x00,
  0x70, 0x3a, 0x00, 0x00, 0x20, 0x3a, 0x00, 0x00, 0x00, 0x3a, 0x00, 0x00,
  0xe8, 0x39, 0x00, 0x00, 0xd8, 0x01, 0x00, 0x00, 0xc8, 0x00, 0x00, 0x00,
  0xc0, 0x00, 0x00, 0x00, 0xb8, 0x00, 0x00, 0x00, 0xb0, 0x00, 0x00, 0x00,
  0xa8, 0x00, 0x00, 0x00, 0xa0, 0x00, 0x00, 0x00, 0x98, 0x00, 0x00, 0x00,
  0x90, 0x00, 0x00, 0x00, 0x88, 0x00, 0x00, 0x00, 0x68, 0x00, 0x00, 0x00,
  0x04, 0x00, 0x00, 0x00, 0x2a, 0xbb, 0xff, 0xff, 0x04, 0x00, 0x00, 0x00,
  0x54, 0x00, 0x00, 0x00, 0x0c, 0x00, 0x00, 0x00, 0x08, 0x00, 0x0e, 0x00,
  0x08, 0x00, 0x04, 0x00, 0x08, 0x00, 0x00, 0x00, 0x10, 0x00, 0x00, 0x00,
  0x24, 0x00, 0x00, 0x00, 0x00, 0x00, 0x06, 0x00, 0x08, 0x00, 0x04, 0x00,
  0x06, 0x00, 0x00, 0x00, 0x04, 0x00, 0x00, 0x00, 0x00, 0x00, 0x00, 0x00,
  0x00, 0x00, 0x0a, 0x00, 0x10, 0x00, 0x0c, 0x00, 0x08, 0x00, 0x04, 0x00,
  0x0a, 0x00, 0x00, 0x00, 0x02, 0x00, 0x00, 0x00, 0x02, 0x00, 0x00, 0x00,
  0x04, 0x00, 0x00, 0x00, 0x06, 0x00, 0x00, 0x00, 0x32, 0x2e, 0x31, 0x33,
  0x2e, 0x30, 0x00, 0x00, 0x8a, 0xbb, 0xff, 0xff, 0x04, 0x00, 0x00, 0x00,
  0x10, 0x00, 0x00, 0x00, 0x31, 0x2e, 0x35, 0x2e, 0x30, 0x00, 0x00, 0x00,
  0x00, 0x00, 0x00, 0x00, 0x00, 0x00, 0x00, 0x00, 0x00, 0xb2, 0xff, 0xff,
  0x04, 0xb2, 0xff, 0xff, 0x08, 0xb2, 0xff, 0xff, 0x0c, 0xb2, 0xff, 0xff,
  0x10, 0xb2, 0xff, 0xff, 0x14, 0xb2, 0xff, 0xff, 0x18, 0xb2, 0xff, 0xff,
  0x1c, 0xb2, 0xff, 0xff, 0xc6, 0xbb, 0xff, 0xff, 0x04, 0x00, 0x00, 0x00,
  0x00, 0x01, 0x00, 0x00, 0xae, 0xc3, 0xa8, 0xbe, 0xc4, 0x2f, 0x36, 0x3e,
  0x18, 0x59, 0xfe, 0xbd, 0xf4, 0xe2, 0x48, 0x3e, 0x53, 0xf6, 0x08, 0x3e,
  0x0f, 0x4c, 0x01, 0x3e, 0x9d, 0xb8, 0x4f, 0x3c, 0x06, 0xbd, 0x2d, 0xbe,
  0xd5, 0x52, 0x41, 0xbe, 0x4a, 0x32, 0x9d, 0x3d, 0xa1, 0xfe, 0x11, 0x3e,
  0x33, 0xc9, 0x5a, 0x3e, 0x0c, 0x15, 0x86, 0xbe, 0x85, 0xcb, 0xe9, 0xbd,
  0x26, 0x4e, 0x4e, 0xbf, 0xda, 0xa4, 0xc6, 0x3e, 0x35, 0xab, 0x34, 0xbe,
  0xc1, 0x81, 0xef, 0x3c, 0x54, 0x2e, 0xf5, 0xbe, 0x1f, 0x08, 0xc9, 0x3d,
  0xd0, 0x5d, 0xdf, 0xba, 0x78, 0x2e, 0x51, 0x3d, 0x62, 0x13, 0x95, 0xbe,
  0xc5, 0x83, 0x8b, 0xbe, 0xf8, 0xe9, 0xb7, 0xbe, 0x66, 0x5c, 0x06, 0xbe,
  0x1d, 0x09, 0x6d, 0xbe, 0x6d, 0xbe, 0x2e, 0x3e, 0x61, 0x8d, 0x3b, 0xbe,
  0x37, 0x1f, 0x1b, 0xbe, 0x0a, 0x92, 0xde, 0xbe, 0xb4, 0x18, 0xa7, 0x3e,
  0x9a, 0x42, 0x09, 0xbf, 0x5c, 0xc6, 0x02, 0x3e, 0x2a, 0x44, 0x0e, 0xbe,
  0x85, 0x40, 0x11, 0x3e, 0x68, 0xd1, 0x45, 0x3d, 0x1b, 0x69, 0xed, 0x3d,
  0x3b, 0xdb, 0x0e, 0x3e, 0xb3, 0x52, 0x08, 0xbe, 0x96, 0xaa, 0x92, 0xbe,
  0x97, 0x2d, 0x13, 0x3e, 0xba, 0x2c, 0x40, 0x3e, 0x97, 0xe1, 0x73, 0x3e,
  0xea, 0x14, 0x85, 0xbf, 0xcb, 0x10, 0x26, 0xbe, 0x50, 0x65, 0x03, 0xbf,
  0xf9, 0x6e, 0xc6, 0x3e, 0x21, 0x0c, 0x63, 0xbe, 0xd5, 0x0f, 0x06, 0x3e,
  0x07, 0xb0, 0x49, 0xbe, 0xbe, 0xf5, 0x10, 0x3e, 0xf2, 0xbf, 0xb8, 0x3d,
  0x86, 0x0c, 0x22, 0x3e, 0x16, 0xe6, 0x44, 0x3e, 0x69, 0x7c, 0x3f, 0xbe,
  0xa7, 0x3a, 0x5f, 0xbe, 0x89, 0x28, 0x04, 0x3e, 0xd2, 0x31, 0x1f, 0x3e,
  0xc2, 0x91, 0x96, 0x3e, 0x21, 0xea, 0x78, 0xbe, 0xc2, 0x8c, 0x75, 0xbd,
  0x5a, 0xe3, 0x86, 0xbe, 0x60, 0x06, 0xdf, 0x3e, 0xd2, 0xbc, 0xff, 0xff,
  0x04, 0x00, 0x00, 0x00, 0x00, 0x38, 0x00, 0x00, 0xb1, 0xc0, 0xc3, 0x3d,
  0xa7, 0x15, 0x42, 0x3e, 0xdd, 0x7a, 0xa8, 0xbe, 0xd2, 0xd8, 0x13, 0x3e,
  0x04, 0xf8, 0x20, 0xbe, 0xd8, 0x28, 0x1b, 0xbe, 0x8d, 0xf5, 0x49, 0x3d,
  0x19, 0x5b, 0x4e, 0xbd, 0xb2, 0xde, 0x77, 0xbd, 0xc7, 0x10, 0x08, 0xbd,
  0x00, 0x29, 0xfe, 0xbd, 0xa8, 0x17, 0xa9, 0x3a, 0xa8, 0x65, 0x2d, 0x3e,
  0x1d, 0x0e, 0xac, 0x3e, 0x7a, 0xc9, 0x2c, 0xbe, 0x0d, 0x7b, 0xec, 0x3c,
  0xfd, 0x04, 0xac, 0x3e, 0x5e, 0xbd, 0xef, 0xb9, 0xcd, 0xff, 0x06, 0xbe,
  0x3f, 0x52, 0x9a, 0x3d, 0x90, 0x9e, 0x29, 0xbe, 0xad, 0x3f, 0xc6, 0xbe,
  0xe2, 0xc9, 0xc8, 0xbe, 0xb9, 0x23, 0xa9, 0xbd, 0xc1, 0xa4, 0x24, 0xbd,
  0x78, 0xe6, 0xab, 0x3d, 0x1f, 0x04, 0xac, 0x3d, 0xd3, 0x4c, 0x9c, 0x3c,
  0x3b, 0x1b, 0xa1, 0x3b, 0xed, 0x4c, 0x92, 0xbe, 0xe5, 0x8a, 0x32, 0xbe,
  0xa8, 0x6b, 0xac, 0x3d, 0x02, 0xa5, 0x90, 0x3e, 0x8b, 0xed, 0x52, 0x3d,
  0xcb, 0xf1, 0x22, 0xbe, 0x61, 0x61, 0xf1, 0x3d, 0x62, 0xb2, 0xd0, 0xbc,
  0xe0, 0xcc, 0x77, 0xbe, 0xd5, 0xe1, 0xd6, 0xbd, 0x52, 0xb5, 0xa2, 0xbd,
  0x0d, 0x44, 0x21, 0x3e, 0xfd, 0x7a, 0x00, 0xbd, 0x47, 0xce, 0xe7, 0x3d,
  0xb0, 0xde, 0x08, 0x3e, 0xd4, 0x21, 0xc0, 0x3e, 0xba, 0x7e, 0x42, 0x3e,
  0xbe, 0xc8, 0x71, 0xbe, 0xd1, 0x18, 0xa3, 0x3d, 0xfa, 0x5b, 0xb6, 0x3e,
  0x4f, 0x87, 0x48, 0xbd, 0x20, 0x73, 0x4c, 0xbb, 0xa4, 0x26, 0x01, 0x3e,
  0xed, 0xd6, 0xbd, 0xbd, 0x3c, 0x19, 0x81, 0xbe, 0x02, 0x7f, 0xb8, 0xbd,
  0xd0, 0xc5, 0x8d, 0x3d, 0xb5, 0xa6, 0x33, 0xbe, 0x2c, 0xde, 0xd4, 0xbd,
  0xf0, 0x29, 0xa0, 0x3d, 0xec, 0x19, 0x1a, 0x3e, 0xd0, 0x2e, 0x61, 0x3e,
  0x62, 0x0a, 0x88, 0x3e, 0xd5, 0x08, 0x29, 0xbe, 0x2b, 0xa8, 0x69, 0x3d,
  0xd3, 0xdf, 0xa4, 0x3e, 0x30, 0x11, 0x0f, 0x3e, 0x1b, 0xe6, 0x44, 0xbc,
  0x0c, 0x3f, 0x35, 0x3d, 0xac, 0x3d, 0x75, 0xbc, 0x69, 0x6c, 0x9d, 0xbe,
  0x2e, 0x2e, 0x36, 0xbd, 0x61, 0x41, 0xea, 0xbc, 0x99, 0x7b, 0x1c, 0xbe,
  0x4c, 0xd6, 0xbd, 0x3a, 0x48, 0xe5, 0x8d, 0xbc, 0x95, 0xfb, 0x72, 0x3e,
  0x62, 0x97, 0x6e, 0x3d, 0x80, 0x96, 0x4c, 0x3d, 0xc9, 0x68, 0xc0, 0xbe,
  0x0b, 0xf4, 0x51, 0xbc, 0x90, 0xea, 0xac, 0x3e, 0x47, 0x21, 0x80, 0x3c,
  0x69, 0x64, 0xf7, 0xbc, 0xd8, 0x13, 0x86, 0x3d, 0x98, 0x17, 0x1c, 0xbe,
  0x4d, 0xd5, 0xa0, 0xbe, 0xcd, 0x7b, 0x20, 0x3b, 0xa4, 0x21, 0xb1, 0x3d,
  0x6b, 0x5d, 0x76, 0xbe, 0x93, 0x18, 0x87, 0xb7, 0x14, 0xee, 0x2a, 0xbe,
  0xbe, 0x47, 0x76, 0x3e, 0x56, 0x6e, 0x24, 0xbd, 0xec, 0x62, 0xcd, 0x3d,
  0xf7, 0xa6, 0x6c, 0xbe, 0x3b, 0x7a, 0x39, 0x3d, 0x1c, 0x0e, 0xc7, 0x3e,
  0x02, 0x34, 0x9f, 0x3c, 0x14, 0xa9, 0xd0, 0xbd, 0xc7, 0xa6, 0x4c, 0x3d,
  0x8d, 0x20, 0x3f, 0xbc, 0x39, 0x5b, 0x8e, 0xbe, 0x2f, 0x7d, 0xad, 0xbd,
  0xa5, 0xcc, 0x05, 0x3d, 0x6e, 0x0d, 0x10, 0x3d, 0x59, 0x7b, 0xac, 0xbd,
  0x27, 0xf7, 0xbd, 0xbe, 0x67, 0x63, 0x1b, 0x3e, 0xd9, 0x29, 0x06, 0x3e,
  0x08, 0x01, 0xd0, 0x3d, 0x7b, 0xa0, 0x84, 0xbe, 0x4e, 0x3e, 0x08, 0x3d,
  0x68, 0xc6, 0xa3, 0x3e, 0xae, 0xe1, 0x90, 0x3d, 0x68, 0x3d, 0x03, 0x3e,
  0x98, 0xc7, 0x8f, 0x3d, 0x1c, 0x89, 0xc9, 0xbd, 0x45, 0x4e, 0x95, 0xbe,
  0x81, 0x40, 0x19, 0xbb, 0x7a, 0x33, 0x18, 0x3e, 0x37, 0xe7, 0xc6, 0xbd,
  0xa1, 0x33, 0x29, 0xbd, 0x3a, 0x69, 0x86, 0xbe, 0xb4, 0xa6, 0x7a, 0x3d,
  0x25, 0xa0, 0x7f, 0x3e, 0xae, 0xe7, 0xce, 0x3c, 0x26, 0xea, 0xe4, 0xbd,
  0xfa, 0x11, 0x65, 0xbd, 0xb5, 0xcd, 0x90, 0x3e, 0xd9, 0x6b, 0x85, 0xbe,
  0xda, 0xab, 0x2d, 0xbe, 0xc5, 0x10, 0x31, 0x3c, 0x4e, 0x81, 0x03, 0xbe,
  0xbd, 0x0b, 0xb6, 0xbe, 0x89, 0x11, 0x93, 0xbd, 0x09, 0x4c, 0xc4, 0xb8,
  0x13, 0xf1, 0x8a, 0xbe, 0x5f, 0x95, 0xc5, 0xbd, 0xd0, 0x13, 0xcd, 0xbe,
  0xd2, 0xd4, 0xe8, 0x3d, 0x28, 0xd5, 0x93, 0x3d, 0x62, 0x3a, 0xbb, 0x3c,
  0x86, 0x24, 0xf2, 0xbd, 0x66, 0x8d, 0x9f, 0xbc, 0xa7, 0xe6, 0x96, 0x3e,
  0x32, 0x99, 0xd3, 0xba, 0xd2, 0x9e, 0x68, 0xbe, 0xcb, 0x01, 0xde, 0xbc,
  0x0c, 0x70, 0xc6, 0xbc, 0x1c, 0xf6, 0x2f, 0xbe, 0x4c, 0x8e, 0x0e, 0xbe,
  0xa7, 0xe6, 0xc1, 0xbc, 0xab, 0x7b, 0x60, 0xbe, 0x99, 0xee, 0xbb, 0xbc,
  0x70, 0x36, 0xc2, 0xbe, 0x98, 0x71, 0x23, 0x3e, 0x40, 0xa2, 0x3d, 0x3e,
  0x16, 0x7a, 0x56, 0x3e, 0xce, 0x5d, 0x75, 0xbe, 0x24, 0xa0, 0x65, 0x3c,
  0xa1, 0x0a, 0x73, 0x3e, 0x83, 0x88, 0x51, 0xbd, 0x7f, 0xbf, 0x92, 0xbe,
  0x8b, 0x27, 0xec, 0xbc, 0x61, 0x0c, 0x26, 0xbe, 0x01, 0xd3, 0xa0, 0xbe,
  0x5b, 0x0c, 0x0a, 0xbe, 0x38, 0x05, 0x4e, 0x3c, 0xb6, 0xda, 0x5b, 0xbe,
  0xcc, 0xa1, 0xd4, 0x3c, 0x86, 0x03, 0x39, 0xbe, 0x47, 0x9d, 0x54, 0x3e,
  0x48, 0x07, 0x4b, 0x3e, 0x33, 0x1d, 0xde, 0x3d, 0x8b, 0x0f, 0x91, 0xbe,
  0x89, 0x19, 0xfb, 0x3d, 0x9e, 0xe3, 0x9f, 0x3e, 0x16, 0x40, 0x0d, 0x3e,
  0x90, 0xef, 0x9d, 0xbe, 0xc1, 0x17, 0x49, 0x3d, 0x0a, 0x2d, 0xad, 0xbd,
  0x70, 0x88, 0xd4, 0xbe, 0x4c, 0x53, 0x4b, 0xbe, 0xd8, 0x0c, 0xd3, 0x3c,
  0x61, 0xd8, 0xe3, 0x3d, 0xaa, 0x1c, 0x80, 0xbc, 0x1f, 0xc7, 0xb4, 0xbe,
  0xe0, 0x4d, 0xe5, 0x3d, 0x4d, 0x93, 0x15, 0x3e, 0x3d, 0x48, 0x83, 0x3e,
  0x69, 0x02, 0x62, 0xbe, 0x70, 0x42, 0xac, 0x3d, 0x16, 0xc4, 0x38, 0x3e,
  0xa5, 0xdf, 0xd6, 0x3d, 0x7a, 0x21, 0xf1, 0xbd, 0x95, 0x41, 0x5f, 0x3c,
  0x5b, 0xff, 0xe9, 0xbd, 0xd6, 0xa1, 0x4c, 0xbe, 0x53, 0x5a, 0x2d, 0xbe,
  0x9f, 0x6b, 0x13, 0xbd, 0x32, 0xdd, 0xfc, 0x3a, 0xf6, 0xaf, 0x08, 0xbd,
  0x9c, 0x6c, 0xda, 0xbe, 0x73, 0x65, 0x27, 0x3e, 0x28, 0x62, 0xc1, 0x39,
  0x4d, 0xf3, 0x7e, 0x3e, 0x19, 0xfb, 0x7c, 0xbe, 0x2a, 0xca, 0xdd, 0x3d,
  0xe6, 0xe5, 0x85, 0x3e, 0xa9, 0x9d, 0x36, 0x3e, 0xf5, 0xa5, 0xa8, 0x3c,
  0x50, 0x4c, 0x05, 0xbd, 0x08, 0xb0, 0x20, 0xbe, 0xf6, 0x42, 0xcd, 0xbe,
  0xee, 0x9e, 0x19, 0xbc, 0xf2, 0xc7, 0xa8, 0x3c, 0x40, 0x17, 0xdd, 0xbe,
  0x34, 0x2c, 0x05, 0x3e, 0x8d, 0xd5, 0x52, 0xbe, 0xfa, 0xef, 0x2a, 0xbd,
  0x13, 0xef, 0x46, 0x3d, 0xd9, 0xfa, 0xe8, 0x3e, 0xa9, 0x0d, 0x2e, 0x3d,
  0x0b, 0xce, 0x5d, 0x3c, 0x8c, 0x99, 0x6c, 0xbe, 0xed, 0xa6, 0x05, 0x3d,
  0x25, 0x0f, 0xee, 0x3d, 0x76, 0xfd, 0x45, 0xbe, 0x38, 0xbe, 0x9c, 0xbd,
  0x0e, 0x09, 0x01, 0xbd, 0xa6, 0x9a, 0x9e, 0x3d, 0x48, 0xb7, 0xb5, 0xbe,
  0x78, 0x53, 0x6d, 0xbe, 0xea, 0xb3, 0x13, 0xbe, 0x5e, 0x6b, 0x02, 0x3b,
  0xae, 0x03, 0xad, 0x3d, 0x92, 0xdd, 0x9d, 0xbd, 0xa9, 0xe7, 0xb0, 0x3d,
  0xfc, 0x6d, 0xbf, 0x3d, 0x3b, 0x0b, 0x7d, 0xbd, 0xab, 0xeb, 0x75, 0x3b,
  0x38, 0xe6, 0x17, 0x3e, 0x7d, 0x22, 0x6f, 0x3d, 0xea, 0x53, 0x8d, 0xbd,
  0xd0, 0x4a, 0xb1, 0xbd, 0xfa, 0xec, 0x1d, 0x3e, 0x7a, 0x50, 0x12, 0x3e,
  0x86, 0x26, 0x1a, 0xbe, 0x7d, 0x16, 0x95, 0xbe, 0x15, 0xab, 0x93, 0xbd,
  0x8c, 0x81, 0x7f, 0xbe, 0x6a, 0x71, 0x43, 0x3e, 0xb0, 0xed, 0x1b, 0x3e,
  0x7e, 0xe9, 0x0c, 0xbe, 0x1c, 0xed, 0x21, 0x3e, 0x40, 0xe1, 0x84, 0x3d,
  0x95, 0xae, 0xd0, 0xbd, 0x19, 0x07, 0x15, 0x3e, 0x19, 0x8e, 0x53, 0x3e,
  0xf6, 0xb6, 0x31, 0xbe, 0xc0, 0x3d, 0x2e, 0xbe, 0xfc, 0xe5, 0x46, 0x3e,
  0x9d, 0xce, 0xd3, 0x3d, 0x72, 0xec, 0x42, 0x3e, 0xc6, 0x37, 0xc9, 0xbd,
  0xfd, 0x06, 0x27, 0xbe, 0xe4, 0xa9, 0xc7, 0xbe, 0xc8, 0xb7, 0x55, 0x3e,
  0x16, 0xab, 0xd3, 0x3d, 0xae, 0x7d, 0x06, 0xbe, 0x0b, 0x59, 0xe2, 0x3d,
  0xa7, 0x6a, 0x2a, 0x3c, 0x40, 0xf0, 0x10, 0xbe, 0x32, 0x82, 0xee, 0xbd,
  0x29, 0xb1, 0x8b, 0x3e, 0x23, 0xfb, 0x33, 0xbe, 0x17, 0x2b, 0x8b, 0xbc,
  0x2e, 0x7f, 0xb7, 0x3d, 0xdd, 0x8c, 0x49, 0x3e, 0x22, 0xdd, 0x3c, 0xbe,
  0x35, 0xf6, 0x2b, 0xbe, 0xd5, 0xb9, 0xa9, 0xbc, 0xd6, 0x5f, 0x40, 0x3d,
  0xf7, 0x32, 0x8e, 0x3e, 0x2a, 0xbd, 0x15, 0x3d, 0x56, 0xad, 0xaf, 0xbd,
  0x69, 0xef, 0x61, 0x3d, 0x80, 0x59, 0xbe, 0xbd, 0x89, 0x36, 0x45, 0x3d,
  0x27, 0xb8, 0xba, 0x3d, 0x02, 0x85, 0x45, 0x3e, 0x75, 0x9e, 0xcf, 0xbd,
  0xde, 0x3f, 0xa2, 0x3d, 0xcb, 0x2a, 0xd6, 0x3c, 0x28, 0xad, 0x22, 0x3e,
  0x43, 0x5c, 0x41, 0x3e, 0xe7, 0x83, 0x21, 0xbe, 0x97, 0x44, 0x71, 0x3d,
  0x17, 0xa3, 0x34, 0x3e, 0x77, 0x4c, 0xfa, 0x3c, 0xd4, 0xd8, 0x6a, 0x3d,
  0xea, 0x69, 0x32, 0x3d, 0x99, 0x6c, 0xfd, 0x3d, 0x95, 0x3b, 0x8a, 0xbd,
  0x99, 0x6c, 0x3e, 0x3e, 0xbf, 0x5e, 0x7c, 0xbd, 0x2b, 0x00, 0xff, 0x3d,
  0xad, 0x17, 0x72, 0xbd, 0x4a, 0xa9, 0x12, 0xbe, 0x93, 0x67, 0x9c, 0x3d,
  0x23, 0x72, 0x7f, 0x3e, 0x33, 0x93, 0x25, 0x3e, 0x49, 0x22, 0x9d, 0x3d,
  0x71, 0x19, 0x31, 0x3e, 0x96, 0x13, 0x27, 0x3e, 0xb7, 0x11, 0xbd, 0x3d,
  0xfe, 0x4c, 0x11, 0xbe, 0x67, 0x18, 0x8f, 0xbc, 0x43, 0x5e, 0xa3, 0x3d,
  0x9b, 0xcc, 0x63, 0xbe, 0x69, 0xed, 0xbd, 0xbd, 0xa0, 0x9a, 0xed, 0xbd,
  0x5c, 0xcc, 0xe1, 0x3d, 0x42, 0x22, 0x8e, 0xbd, 0xd8, 0xeb, 0x5c, 0xbe,
  0x6e, 0xf1, 0x4f, 0xbd, 0xe8, 0x21, 0x38, 0x3e, 0xed, 0x8f, 0x7d, 0xbc,
  0x89, 0xf8, 0x83, 0x3e, 0x6b, 0xfb, 0xe9, 0xbb, 0xff, 0xf5, 0x37, 0xbd,
  0x2b, 0xc9, 0x6d, 0x3c, 0xe6, 0x35, 0x18, 0x3e, 0x57, 0xc6, 0x0b, 0x3e,
  0xb2, 0x64, 0x3f, 0xbe, 0x55, 0xa0, 0x59, 0xbe, 0xb0, 0x34, 0xd0, 0xbe,
  0x3c, 0xa8, 0x97, 0xbd, 0xdd, 0x38, 0x70, 0xbd, 0xcc, 0x90, 0x95, 0x3d,
  0x68, 0x02, 0x00, 0xbe, 0x5f, 0x68, 0x97, 0xbe, 0x32, 0x40, 0x84, 0xbe,
  0x2d, 0x43, 0x40, 0xbd, 0xb0, 0x34, 0xc0, 0xbc, 0x3e, 0xbd, 0x20, 0xbc,
  0x2e, 0x90, 0xa9, 0xbb, 0x7a, 0x86, 0x1f, 0xbe, 0xdc, 0x40, 0xa0, 0xbd,
  0x8c, 0x07, 0xa2, 0x3d, 0xe7, 0x4b, 0xe9, 0xbe, 0xe4, 0x12, 0x84, 0xbe,
  0x11, 0xc8, 0x13, 0x3e, 0xae, 0xd6, 0xfa, 0xbd, 0x1b, 0xb0, 0x45, 0x3e,
  0xa3, 0x46, 0x35, 0xbe, 0xe6, 0xeb, 0x82, 0xbe, 0x8d, 0x47, 0xef, 0xbe,
  0x38, 0x90, 0x0a, 0xbf, 0x0c, 0xff, 0x25, 0xbd, 0x27, 0x23, 0x08, 0xbe,
  0x2d, 0x04, 0xf3, 0xbd, 0x8a, 0x01, 0x39, 0x3c, 0x5b, 0x7e, 0x08, 0xbf,
  0xf2, 0x36, 0x00, 0xbe, 0xc1, 0x7b, 0xb3, 0x3d, 0x2c, 0xf5, 0x88, 0xbe,
  0x4e, 0xec, 0x24, 0xbd, 0xce, 0xeb, 0x1e, 0xbb, 0x21, 0x91, 0xff, 0x3d,
  0xf5, 0x44, 0x74, 0x3d, 0xb8, 0x2f, 0xc4, 0x3b, 0x59, 0xcf, 0xb6, 0xbd,
  0x80, 0x49, 0xfc, 0x3c, 0xb9, 0xd2, 0xaf, 0x3d, 0x9f, 0x1b, 0x3a, 0xbe,
  0x23, 0x4a, 0x3f, 0xbd, 0x78, 0x88, 0xf2, 0xbd, 0x76, 0x78, 0xe2, 0x3d,
  0x6e, 0x4b, 0x1f, 0xbe, 0x66, 0xcd, 0x21, 0xbe, 0xdb, 0xd8, 0x0c, 0xbe,
  0x8e, 0x37, 0xca, 0xbd, 0x03, 0xf1, 0x14, 0x3d, 0x03, 0x0d, 0xa9, 0xbd,
  0x16, 0x67, 0xbb, 0x3d, 0xc7, 0x53, 0x03, 0x3e, 0x88, 0xf4, 0xf0, 0x3b,
  0xd3, 0x8e, 0x3f, 0x3c, 0x2c, 0xc6, 0x6b, 0xbe, 0x29, 0x91, 0x47, 0xbe,
  0x70, 0x5b, 0x47, 0xbe, 0x1a, 0xce, 0x22, 0xbe, 0x04, 0x98, 0x42, 0xbc,
  0x01, 0x90, 0xb4, 0x3d, 0x92, 0x2f, 0x5b, 0xbe, 0x7d, 0x0a, 0x4a, 0x3d,
  0x22, 0xc9, 0xf1, 0xbd, 0xde, 0xef, 0x63, 0xbe, 0x91, 0xf0, 0x09, 0xbd,
  0x8f, 0x23, 0x54, 0xbe, 0x6b, 0xc4, 0xa5, 0xbd, 0x26, 0xe9, 0x0c, 0x3e,
  0xa2, 0x1d, 0xe0, 0xbd, 0x2a, 0x0f, 0x45, 0xbb, 0x91, 0x27, 0x09, 0xbe,
  0x4b, 0x9d, 0x89, 0xbe, 0xf7, 0x84, 0x19, 0xbe, 0x8b, 0xd7, 0x0d, 0xbe,
  0x48, 0x18, 0x68, 0x3d, 0xf5, 0x17, 0x47, 0xbd, 0xbd, 0x4f, 0x93, 0xbe,
  0x34, 0x0d, 0x8e, 0x3d, 0xc7, 0xbc, 0xae, 0x3d, 0xa7, 0xd3, 0x1f, 0xbe,
  0xdb, 0x8b, 0xa9, 0x3c, 0xc5, 0xb0, 0x5f, 0xbd, 0x44, 0xb9, 0x33, 0x3e,
  0x3a, 0x29, 0x61, 0x3b, 0x66, 0xdd, 0x4b, 0xbd, 0xe9, 0x61, 0x91, 0x3d,
  0xda, 0x0d, 0xb3, 0xbe, 0xcd, 0xfc, 0xb2, 0xbe, 0x09, 0xdd, 0xf7, 0xbd,
  0xf1, 0xb8, 0x7e, 0xbd, 0x53, 0xca, 0x1a, 0xbe, 0xa4, 0x0b, 0xaa, 0x3d,
  0x49, 0x25, 0x87, 0xbe, 0xdf, 0xe6, 0x00, 0xbe, 0x21, 0xd9, 0xe6, 0x3c,
  0x02, 0xff, 0x27, 0xbe, 0x13, 0x7d, 0x81, 0xbc, 0x0b, 0xf2, 0x96, 0xbd,
  0xbc, 0xd4, 0x21, 0x3e, 0xdf, 0x60, 0x44, 0xbd, 0xb9, 0x28, 0x84, 0xbd,
  0x3e, 0xc5, 0xec, 0x3c, 0x18, 0xc2, 0xa5, 0xbd, 0x59, 0x43, 0x28, 0xbd,
  0x91, 0xbf, 0x8a, 0x3c, 0x46, 0x56, 0x2e, 0xbe, 0xec, 0x00, 0x1b, 0x3c,
  0x3c, 0x5e, 0x5e, 0x3d, 0xb7, 0xa4, 0x57, 0xbc, 0x8f, 0x54, 0x24, 0x3e,
  0x8a, 0xa5, 0x23, 0xbe, 0xa7, 0xbb, 0x94, 0xbe, 0xb1, 0x3c, 0x8f, 0xbd,
  0x69, 0x44, 0x19, 0xbe, 0x1c, 0x1c, 0x36, 0x3e, 0xed, 0x1e, 0xae, 0x3d,
  0xcc, 0xdd, 0x56, 0xbe, 0x4e, 0x04, 0x18, 0xbe, 0x8e, 0xc9, 0x04, 0xbf,
  0xb7, 0x01, 0x14, 0xbe, 0xe4, 0x35, 0x5e, 0xbd, 0x08, 0x13, 0xb1, 0x3d,
  0x28, 0x19, 0xc9, 0xbe, 0x94, 0x06, 0x18, 0xbd, 0x28, 0xe3, 0xc1, 0xbc,
  0xef, 0x61, 0x0e, 0xbb, 0xf4, 0xe2, 0x16, 0x3c, 0x42, 0x4a, 0x1e, 0xbb,
  0x6c, 0x5b, 0x08, 0xbd, 0xb8, 0x9b, 0x5d, 0xbe, 0xd0, 0x11, 0x4b, 0x3d,
  0x52, 0x0a, 0x97, 0x3d, 0x0a, 0xac, 0x8d, 0xbe, 0x67, 0x99, 0xea, 0xbd,
  0x08, 0x59, 0xf5, 0xbe, 0x7d, 0xd5, 0xeb, 0xbe, 0x29, 0xe3, 0x1a, 0xbd,
  0x0c, 0x00, 0x99, 0xbd, 0x13, 0x45, 0xd3, 0x3d, 0xf7, 0x59, 0x51, 0xbc,
  0xe7, 0x59, 0x5e, 0x3d, 0x0e, 0xa2, 0xe4, 0x3d, 0x62, 0x9d, 0xd1, 0x3d,
  0xa5, 0x7a, 0xd0, 0xbc, 0xf5, 0x3a, 0xbe, 0xbd, 0x55, 0xec, 0xdc, 0xbe,
  0x67, 0x2d, 0x51, 0x3d, 0x54, 0x52, 0xfd, 0x3d, 0xd7, 0xcd, 0xc5, 0xbc,
  0xbb, 0xf8, 0x9b, 0xbc, 0x90, 0x83, 0xb6, 0xbe, 0x16, 0x3e, 0xe3, 0xbe,
  0xbd, 0x06, 0x76, 0xbe, 0x34, 0xd2, 0x58, 0xbd, 0x51, 0x74, 0x48, 0xbb,
  0xea, 0x1b, 0x17, 0x3c, 0x7c, 0xe5, 0x12, 0xbe, 0x0e, 0x7e, 0xc7, 0x3b,
  0xf8, 0x4d, 0x08, 0xbe, 0x9f, 0x41, 0x9c, 0xbd, 0x0e, 0x00, 0x11, 0xbe,
  0xdb, 0xfe, 0xbd, 0xbe, 0xaf, 0xd2, 0x1b, 0xbd, 0x89, 0x1f, 0xaf, 0x3e,
  0x43, 0xbf, 0x26, 0xbb, 0xc2, 0xfe, 0x2a, 0x3d, 0x21, 0x0d, 0x5c, 0xbe,
  0xde, 0x81, 0xc2, 0xbe, 0xe4, 0x19, 0xe7, 0xbd, 0x82, 0xa0, 0x2e, 0xbd,
  0xf9, 0x3d, 0x16, 0x3e, 0x52, 0x1f, 0x39, 0xbd, 0xec, 0x16, 0x1b, 0xbe,
  0x1f, 0x4e, 0x06, 0xbe, 0x2d, 0x53, 0x6b, 0xbd, 0x6e, 0x03, 0x87, 0xbe,
  0x31, 0x84, 0xc0, 0xbd, 0xb8, 0x4f, 0xac, 0xbe, 0x96, 0x92, 0xdc, 0xbd,
  0x2b, 0x8b, 0x1b, 0x3e, 0x8a, 0xca, 0x36, 0x3c, 0xc6, 0xac, 0xbc, 0x3c,
  0xce, 0x68, 0xca, 0xbe, 0x46, 0x4c, 0x63, 0xbe, 0x19, 0x8e, 0xef, 0xbd,
  0xd5, 0x8a, 0x1f, 0xbe, 0xf9, 0xdf, 0xed, 0x3a, 0x70, 0xdc, 0x89, 0x3c,
  0x99, 0x08, 0x15, 0xbe, 0xd1, 0x40, 0x39, 0xbe, 0xc2, 0xba, 0x54, 0xbd,
  0x86, 0x73, 0xea, 0xbd, 0x3e, 0x75, 0x6a, 0xbe, 0x46, 0x04, 0xbc, 0xbe,
  0x8d, 0x05, 0x10, 0xbe, 0xcb, 0x5b, 0xd0, 0x3d, 0x45, 0x40, 0x90, 0xbd,
  0x1f, 0x91, 0xba, 0x3c, 0x56, 0x5f, 0xcb, 0xbe, 0x01, 0x31, 0x80, 0xbe,
  0x58, 0x2a, 0x77, 0xbe, 0x9f, 0x72, 0x9f, 0x3d, 0x54, 0xf8, 0xe5, 0x3c,
  0xdc, 0x20, 0x51, 0xbd, 0xe2, 0xfd, 0x24, 0xbf, 0x43, 0xac, 0xa2, 0xbd,
  0xa2, 0x9a, 0xb2, 0x3d, 0x1c, 0x4f, 0x0d, 0xbe, 0x38, 0x77, 0x96, 0xbe,
  0xa0, 0x9e, 0xdb, 0xbd, 0x7a, 0x20, 0xd3, 0x3d, 0x48, 0xab, 0x3c, 0x3e,
  0x6f, 0x1c, 0x1f, 0xbe, 0x23, 0x8d, 0xea, 0xbc, 0xbd, 0x78, 0xa8, 0xbe,
  0x29, 0x1b, 0xf6, 0xbe, 0x62, 0x92, 0x31, 0xbd, 0xbd, 0x33, 0xf0, 0x3d,
  0xa3, 0xf9, 0x1a, 0x3d, 0xf2, 0x05, 0x4a, 0x3d, 0xdc, 0xdf, 0x7d, 0xbe,
  0x77, 0x89, 0xde, 0xbd, 0xd7, 0xc4, 0x30, 0x3d, 0xc2, 0x56, 0x22, 0xbe,
  0x02, 0xfb, 0xae, 0xbe, 0x4e, 0x4e, 0x90, 0x3c, 0x7c, 0x8d, 0xd1, 0x3d,
  0x8b, 0x7f, 0x02, 0x3e, 0xa7, 0xd7, 0x98, 0x3d, 0x3b, 0x28, 0xd1, 0xbe,
  0x14, 0xcd, 0x4f, 0xbe, 0x62, 0xfb, 0xea, 0xbe, 0x85, 0xfb, 0x93, 0xbe,
  0xb6, 0x56, 0x0d, 0x3e, 0xe1, 0xe0, 0x2a, 0xbc, 0xfb, 0x84, 0xaf, 0x3d,
  0xde, 0x95, 0x82, 0xbe, 0xab, 0x86, 0x8d, 0x3d, 0xe7, 0x3d, 0x32, 0xbd,
  0xf1, 0x86, 0x92, 0xbe, 0xe5, 0x78, 0xd1, 0xbc, 0x1e, 0x5d, 0x3f, 0xbe,
  0x48, 0x15, 0xed, 0x3d, 0xd5, 0xd1, 0x6b, 0x3d, 0x8f, 0x98, 0x70, 0xbd,
  0x70, 0xdc, 0x8e, 0x3c, 0xe5, 0xe4, 0xa3, 0xbe, 0x3d, 0x68, 0x11, 0xbf,
  0x13, 0x58, 0x84, 0xbe, 0x4a, 0x33, 0x20, 0xbd, 0x42, 0x72, 0x16, 0xbd,
  0xfa, 0x64, 0x9d, 0x3d, 0x5f, 0x98, 0xc4, 0xbe, 0x59, 0x11, 0xb6, 0x3c,
  0x19, 0xf9, 0xca, 0xbd, 0x3b, 0x36, 0xef, 0xbb, 0xd6, 0xc1, 0xe4, 0x3b,
  0x0e, 0xb8, 0x04, 0x3e, 0xe2, 0xcb, 0xb2, 0xbd, 0x8a, 0x78, 0xd2, 0x3d,
  0xae, 0x80, 0x54, 0xbc, 0x16, 0x70, 0x89, 0x3c, 0x24, 0x0a, 0x71, 0xbd,
  0x60, 0x23, 0x6c, 0xbc, 0x35, 0x0c, 0x51, 0xbe, 0xf9, 0x32, 0x55, 0xbd,
  0xae, 0xff, 0x94, 0x3c, 0x58, 0x61, 0xe2, 0x3d, 0xf2, 0xa8, 0xa9, 0x3d,
  0x6c, 0x01, 0x93, 0x3d, 0x5b, 0x67, 0xb8, 0xbc, 0xc2, 0x7e, 0x82, 0x3d,
  0xb3, 0x27, 0x93, 0xbd, 0xdc, 0x68, 0x6e, 0xbb, 0x3b, 0xa1, 0xb3, 0xbd,
  0xd1, 0xa9, 0xaa, 0xbd, 0x02, 0xc7, 0x8a, 0xbd, 0x29, 0xd2, 0xe6, 0x3d,
  0x36, 0xfc, 0xe4, 0x3d, 0xad, 0x47, 0xb8, 0x3d, 0xfd, 0x27, 0x07, 0xbe,
  0xca, 0x6d, 0x80, 0xbe, 0x64, 0x98, 0x44, 0x3e, 0x7c, 0xca, 0x96, 0x3c,
  0xbc, 0xf0, 0x27, 0x3c, 0xe1, 0xbe, 0xb1, 0x3c, 0x82, 0x7c, 0x8a, 0xbd,
  0x68, 0xba, 0x80, 0xbd, 0xf7, 0x7f, 0x44, 0x3c, 0x59, 0x5a, 0x58, 0x3c,
  0x9c, 0x68, 0xc8, 0x3d, 0x2f, 0xa3, 0x0d, 0x3e, 0xe6, 0x28, 0x1c, 0xbe,
  0xa1, 0xbd, 0xfe, 0x3c, 0x30, 0x28, 0x33, 0x3e, 0xc8, 0xce, 0x25, 0xbd,
  0x62, 0x14, 0x62, 0x3e, 0xeb, 0xe1, 0x62, 0xbd, 0x02, 0x66, 0x78, 0x3d,
  0x82, 0x7c, 0x20, 0xbe, 0x87, 0xca, 0x35, 0x3e, 0xb5, 0xe1, 0x82, 0xbd,
  0x26, 0x58, 0x8c, 0xbd, 0xe4, 0x80, 0x7c, 0x3d, 0xbe, 0xc6, 0xad, 0x3c,
  0x2c, 0x49, 0x33, 0xbe, 0xf7, 0x71, 0xc0, 0xbd, 0xd8, 0xb7, 0x23, 0x3d,
  0x2c, 0x4d, 0x6a, 0xbd, 0xce, 0x16, 0x0c, 0x3e, 0xc1, 0x4a, 0xd8, 0x3d,
  0xe4, 0xcb, 0xb1, 0x3d, 0x9e, 0x37, 0x27, 0xbd, 0xbd, 0xd5, 0x60, 0x3c,
  0x65, 0x9c, 0x39, 0x3d, 0x34, 0xc6, 0x38, 0xbe, 0xfc, 0x74, 0x18, 0x3e,
  0xfc, 0xd1, 0x70, 0x3d, 0x01, 0x77, 0xbc, 0x3d, 0xf0, 0x4a, 0xdd, 0x3d,
  0x8e, 0xcb, 0x7a, 0xbd, 0x90, 0xc9, 0x3e, 0xbd, 0xd1, 0x8d, 0x52, 0x3c,
  0xdd, 0x53, 0xb2, 0xbd, 0x96, 0x06, 0x44, 0xbd, 0xdd, 0x81, 0xd6, 0x3c,
  0x6d, 0x0a, 0x48, 0x3d, 0x2f, 0xcc, 0x9f, 0x3b, 0xa4, 0x10, 0xbb, 0xbd,
  0xf3, 0x7f, 0x89, 0xbd, 0xa0, 0x43, 0x1a, 0x3d, 0xde, 0x13, 0x11, 0xbd,
  0x18, 0xf8, 0xb0, 0x3d, 0x55, 0xfd, 0xce, 0x3d, 0x55, 0x99, 0x74, 0x3a,
  0xfa, 0xfd, 0x1f, 0xbd, 0x8a, 0x02, 0xce, 0x3c, 0x42, 0xd7, 0xcd, 0xbe,
  0x5e, 0x35, 0x25, 0x3c, 0x91, 0x70, 0x8f, 0x3b, 0xf5, 0x2c, 0x69, 0x3d,
  0xf6, 0x5a, 0x76, 0x3d, 0xec, 0x04, 0x10, 0xbe, 0x10, 0x56, 0xce, 0xbd,
  0x7d, 0xd1, 0xad, 0xbd, 0xdc, 0x13, 0x85, 0x3d, 0x55, 0xfe, 0xfc, 0xbe,
  0x09, 0x93, 0x8d, 0xbc, 0xa1, 0x90, 0xf4, 0xbe, 0x67, 0x74, 0x4a, 0xbd,
  0x14, 0x58, 0x96, 0x3d, 0x4f, 0xf3, 0x11, 0xbe, 0xf8, 0xb1, 0x6e, 0xbe,
  0xf2, 0x65, 0xbf, 0xbe, 0x70, 0x57, 0x10, 0x3e, 0xda, 0x5d, 0x2a, 0xbb,
  0x1d, 0x5d, 0x0c, 0x3d, 0x38, 0x17, 0x18, 0xbe, 0xf3, 0x82, 0x94, 0xbe,
  0xcb, 0x52, 0x07, 0xbf, 0xaf, 0x47, 0x50, 0xbe, 0xa0, 0xb1, 0x28, 0x3e,
  0x5a, 0xec, 0x86, 0xbe, 0xd4, 0x43, 0x26, 0x3d, 0xe8, 0xb3, 0xf9, 0xbd,
  0xec, 0xd7, 0xe7, 0xbd, 0x63, 0x07, 0xbd, 0x3d, 0x23, 0x76, 0xb5, 0xbe,
  0xb7, 0x4c, 0x77, 0xbe, 0xc9, 0x0b, 0x03, 0xbf, 0x1a, 0x27, 0x2e, 0x3c,
  0x5b, 0x8a, 0x06, 0xbe, 0xfd, 0x32, 0x20, 0xbd, 0x3b, 0x33, 0x6d, 0xbe,
  0x8e, 0x1d, 0xc2, 0xbe, 0x2f, 0x84, 0x0e, 0xbf, 0x70, 0x88, 0x71, 0x3c,
  0xac, 0x37, 0xa2, 0x3d, 0xa6, 0xe3, 0x81, 0xbe, 0x58, 0xc3, 0x56, 0x3b,
  0x65, 0x9d, 0xe6, 0xbd, 0xab, 0xdc, 0xe5, 0x3b, 0x6c, 0x83, 0x62, 0xbd,
  0x69, 0x02, 0xaa, 0xbe, 0xb7, 0x17, 0xbd, 0xbd, 0x7a, 0xfe, 0xde, 0xbe,
  0x7c, 0x86, 0x01, 0x3d, 0xea, 0x67, 0xa6, 0x3e, 0x88, 0xb9, 0x86, 0x3d,
  0x53, 0x03, 0xb1, 0xbe, 0x4e, 0x28, 0x7a, 0xbe, 0x9e, 0x45, 0x41, 0xbf,
  0x70, 0xa5, 0x4e, 0x3d, 0x71, 0xa8, 0xb7, 0x3d, 0xbc, 0x01, 0xb0, 0xbd,
  0x9c, 0x7a, 0xc4, 0x3d, 0x6b, 0x1e, 0x84, 0xbe, 0x11, 0x66, 0xfc, 0xbb,
  0xef, 0x81, 0x06, 0xbc, 0x7f, 0xa5, 0x76, 0xbe, 0x86, 0xd3, 0x83, 0xbd,
  0x5c, 0x90, 0x0b, 0xbe, 0x55, 0x75, 0x9e, 0xbe, 0x42, 0x51, 0x7b, 0x3e,
  0xbe, 0x2b, 0x8d, 0x3c, 0x43, 0x32, 0xc9, 0xbd, 0xbf, 0xed, 0x4e, 0x3d,
  0x7d, 0xff, 0xe0, 0xbe, 0xa5, 0x34, 0x83, 0x3e, 0xab, 0x35, 0x43, 0x3e,
  0x2e, 0xf3, 0x39, 0xbe, 0xa4, 0xa4, 0xc2, 0x3d, 0xf2, 0x0f, 0x07, 0xbe,
  0x72, 0x00, 0x90, 0x3d, 0x17, 0x9c, 0x83, 0xbd, 0x2a, 0x9b, 0xc5, 0xbd,
  0x92, 0x38, 0x03, 0xba, 0x4b, 0xef, 0x64, 0x3e, 0x5b, 0x83, 0x28, 0xbe,
  0x6a, 0xe2, 0xe8, 0x3d, 0x30, 0x66, 0x12, 0xbd, 0xff, 0x66, 0x53, 0xbd,
  0xd9, 0x30, 0x3d, 0x3d, 0xaf, 0xe6, 0xdf, 0xbd, 0x15, 0x2e, 0x38, 0x3e,
  0x4b, 0x1d, 0xe9, 0x3d, 0xc3, 0x91, 0x28, 0xbe, 0x62, 0xeb, 0x99, 0x3d,
  0x29, 0xa8, 0x77, 0x3d, 0xf0, 0xc2, 0xf8, 0xbd, 0x24, 0x33, 0x33, 0xbe,
  0xde, 0x84, 0x7d, 0xbd, 0x74, 0x61, 0x52, 0xbd, 0xca, 0x2b, 0x5b, 0x3a,
  0x96, 0x8d, 0xf8, 0x3c, 0x9e, 0xab, 0x39, 0x3e, 0x12, 0xdd, 0xf9, 0xbd,
  0xb0, 0x3e, 0x05, 0xbe, 0x9c, 0x4c, 0x98, 0x3d, 0xe8, 0x4c, 0x0e, 0xbd,
  0xff, 0xf1, 0x86, 0x3d, 0x5f, 0x8f, 0x1d, 0xbe, 0x63, 0xe7, 0xb2, 0x3d,
  0xa0, 0x0d, 0xc0, 0xbc, 0x48, 0xc6, 0x99, 0x3e, 0xf5, 0xc5, 0xb1, 0xbd,
  0xe0, 0xa4, 0x85, 0x39, 0xf3, 0x5b, 0xa9, 0x3d, 0xfc, 0x58, 0x0d, 0xbc,
  0x2d, 0x21, 0x88, 0x3e, 0xd8, 0x75, 0xd2, 0xbd, 0xe7, 0x36, 0x08, 0x3e,
  0xeb, 0xff, 0x04, 0xbe, 0x48, 0x56, 0xd6, 0xbd, 0x5f, 0xd1, 0x92, 0x3d,
  0x1e, 0x64, 0x83, 0xbd, 0x15, 0xb2, 0xe9, 0x3d, 0xc1, 0x2b, 0x88, 0xbe,
  0x35, 0xb7, 0xe1, 0x3b, 0xec, 0x39, 0x18, 0xbe, 0x66, 0x83, 0x7e, 0x3e,
  0x14, 0xa5, 0x75, 0x3d, 0x84, 0x20, 0xe6, 0x3c, 0xdf, 0x2b, 0x8f, 0x3d,
  0x7f, 0x3d, 0xc8, 0xbc, 0x85, 0x44, 0x8e, 0x3d, 0x51, 0x12, 0x13, 0xbd,
  0x76, 0xd6, 0x3b, 0x3d, 0x50, 0x64, 0x64, 0xbe, 0x46, 0xc4, 0xce, 0xbd,
  0x5b, 0x18, 0x95, 0x3d, 0xc6, 0xde, 0xa7, 0x3d, 0x85, 0x4c, 0x2a, 0xbe,
  0x90, 0x29, 0x89, 0xbe, 0xc1, 0xc3, 0x49, 0x3d, 0x91, 0x59, 0xc5, 0xbd,
  0xd0, 0xd7, 0x41, 0x3e, 0xf8, 0xbb, 0x91, 0xbd, 0x08, 0xf8, 0x29, 0x3e,
  0xe5, 0x09, 0xab, 0x3d, 0x29, 0xc4, 0x1e, 0xbd, 0xbc, 0x00, 0xc6, 0xbd,
  0x0d, 0x7f, 0xd8, 0x3d, 0x67, 0xd2, 0x11, 0x3e, 0x6c, 0xa4, 0xc1, 0xbd,
  0x11, 0x36, 0x7e, 0xbd, 0xdb, 0x9a, 0xda, 0x3d, 0xcd, 0x44, 0x13, 0x3d,
  0xb6, 0xe1, 0x0e, 0xbe, 0x98, 0x1e, 0xac, 0xbd, 0x25, 0x04, 0x0a, 0xbe,
  0xb5, 0x85, 0xc4, 0xbd, 0x64, 0xa1, 0x81, 0x3e, 0x1e, 0xbb, 0x74, 0xbd,
  0x54, 0xfd, 0x87, 0x3d, 0xd0, 0x19, 0x06, 0x3e, 0x5d, 0x86, 0xc5, 0x3c,
  0x27, 0xa3, 0x07, 0xbe, 0x5a, 0x0a, 0x17, 0xbd, 0x6f, 0x05, 0x88, 0x3e,
  0x4d, 0xe4, 0xea, 0xbd, 0x13, 0x5c, 0x11, 0xbe, 0x83, 0x28, 0x03, 0x3e,
  0xe2, 0x50, 0x64, 0x3d, 0xf1, 0x10, 0xb0, 0xbe, 0x71, 0x6c, 0x1d, 0x3d,
  0x5c, 0x1a, 0x6f, 0xbd, 0xcc, 0x26, 0x21, 0xbd, 0x02, 0x05, 0x46, 0x3e,
  0x19, 0x11, 0x5d, 0x3c, 0x75, 0x79, 0xfa, 0x3d, 0x27, 0x67, 0x06, 0x3e,
  0x1c, 0x05, 0x13, 0xbd, 0x64, 0x2d, 0x53, 0xbe, 0x54, 0xb5, 0xe4, 0xbd,
  0xa9, 0x7f, 0x32, 0x3e, 0xea, 0xde, 0xce, 0x3c, 0x6a, 0x84, 0xb5, 0xbd,
  0x94, 0xbd, 0xc8, 0x3d, 0x34, 0xb0, 0x1c, 0x3e, 0x1a, 0x4d, 0xdc, 0x3d,
  0x0d, 0x0c, 0x10, 0xbe, 0x79, 0x3e, 0xa3, 0xbd, 0xb7, 0x79, 0x0e, 0x3e,
  0x8b, 0x47, 0x48, 0x3e, 0x4b, 0x65, 0xa0, 0xbd, 0x3f, 0x0a, 0xfd, 0xbd,
  0x09, 0xd3, 0xbf, 0xbd, 0xe5, 0x78, 0x3b, 0x3c, 0x3c, 0x5b, 0x85, 0xbd,
  0x9f, 0xcb, 0x0c, 0xbe, 0x17, 0xf0, 0x14, 0x3e, 0x3c, 0xa4, 0x2a, 0x3e,
  0x7f, 0x7e, 0x28, 0xbe, 0xfa, 0xab, 0xcc, 0x3d, 0xc6, 0x7f, 0x20, 0x3e,
  0xa9, 0x0e, 0x2e, 0x3d, 0xd6, 0x0e, 0x02, 0x3d, 0xa9, 0xb9, 0x6f, 0xbe,
  0x70, 0x7f, 0xc3, 0x3d, 0x5b, 0x97, 0x08, 0x3e, 0xe0, 0x4d, 0xe5, 0xbd,
  0x52, 0xf3, 0x08, 0xbd, 0x0a, 0x83, 0x50, 0xbd, 0x46, 0x36, 0xf0, 0xbc,
  0xb9, 0xaa, 0x24, 0xbf, 0xcf, 0x2d, 0xb2, 0xbd, 0x0e, 0xda, 0x66, 0xbf,
  0xef, 0x25, 0x39, 0xbd, 0x3b, 0x9c, 0xa5, 0x3d, 0x0e, 0x89, 0xbf, 0xbe,
  0x9a, 0xe5, 0xab, 0xbe, 0x24, 0x98, 0x6f, 0xbe, 0x9c, 0x1f, 0xe3, 0xbe,
  0xd5, 0x18, 0xb5, 0xbd, 0xd2, 0xc5, 0x00, 0x3d, 0xc4, 0x11, 0xdb, 0x3d,
  0xea, 0x48, 0xdf, 0xbd, 0x1f, 0x81, 0x12, 0x3c, 0xd6, 0xd0, 0xab, 0xbe,
  0x8a, 0xda, 0x25, 0xbe, 0xa9, 0xc4, 0xc5, 0xbe, 0xf0, 0x18, 0xc5, 0xbd,
  0xcf, 0x4f, 0x7f, 0xbd, 0xde, 0x26, 0x98, 0xbe, 0x3c, 0x72, 0x97, 0xbd,
  0x07, 0xd2, 0xa7, 0xbd, 0xf2, 0x71, 0xa0, 0xbe, 0x6e, 0xa2, 0x85, 0xbe,
  0xf0, 0xb8, 0x5c, 0x3e, 0x5a, 0xf4, 0x90, 0xbe, 0x51, 0x09, 0xa9, 0xbb,
  0x81, 0x68, 0x0a, 0x3e, 0xa8, 0x37, 0x93, 0x3d, 0xa6, 0xa7, 0xac, 0x3d,
  0x31, 0x4a, 0xa0, 0xbd, 0x3a, 0x60, 0xfc, 0xbd, 0xc4, 0xaf, 0x51, 0x3d,
  0xf1, 0xbb, 0x38, 0x3e, 0x01, 0x8f, 0x75, 0x3e, 0x1d, 0xe5, 0xeb, 0xbd,
  0x6c, 0x35, 0x1d, 0xbe, 0x92, 0xfa, 0x95, 0x3d, 0xa8, 0xc9, 0x28, 0x3e,
  0x64, 0x7e, 0xa5, 0xbd, 0x1a, 0x3d, 0xc4, 0xbd, 0xfb, 0xa7, 0xa4, 0x3d,
  0xeb, 0x2a, 0xfc, 0xbd, 0xbe, 0xcd, 0x06, 0x3e, 0xd9, 0x13, 0x3c, 0x3e,
  0xd9, 0xf4, 0x2d, 0xbc, 0x87, 0xab, 0x56, 0x3d, 0x43, 0xac, 0xb8, 0x3c,
  0x34, 0x4d, 0xb9, 0xbc, 0xc7, 0xce, 0x9b, 0x3c, 0x28, 0x93, 0x5f, 0x3e,
  0xd9, 0x60, 0x59, 0xbd, 0xae, 0xaa, 0x12, 0xbe, 0x3d, 0xfc, 0x0d, 0x3e,
  0xea, 0xda, 0xb5, 0xbd, 0x0f, 0x5a, 0xd2, 0x3d, 0x4b, 0x79, 0x4a, 0x3e,
  0x04, 0xe1, 0x36, 0xbd, 0x76, 0xd6, 0x3e, 0x3c, 0xf4, 0x24, 0xbf, 0x3e,
  0x1a, 0xf2, 0x07, 0x3e, 0x26, 0x70, 0xcb, 0xbd, 0x3c, 0xad, 0x95, 0x3d,
  0x8c, 0xe9, 0x12, 0xbd, 0x6a, 0xec, 0x9c, 0xbc, 0xde, 0xb2, 0xd5, 0x3c,
  0xbd, 0x21, 0xe4, 0x3e, 0xf4, 0x89, 0x3a, 0xbd, 0xc7, 0x29, 0xe8, 0xbd,
  0x72, 0x1d, 0xd2, 0x3d, 0xb5, 0xc4, 0x33, 0x3d, 0x5c, 0x17, 0x8d, 0x3d,
  0x54, 0x36, 0x6d, 0x3a, 0xcb, 0x12, 0x36, 0x39, 0xd7, 0xf9, 0xba, 0x3d,
  0x1c, 0xa7, 0x44, 0x3e, 0x83, 0x5b, 0x02, 0x3d, 0x94, 0xa1, 0x16, 0x3e,
  0xf4, 0x28, 0xb2, 0x3d, 0xeb, 0x2e, 0x88, 0xbd, 0xf4, 0xaf, 0x14, 0xbd,
  0x1c, 0xfa, 0xf7, 0x3c, 0xcc, 0x17, 0x2b, 0x3e, 0xde, 0xf5, 0x80, 0xbd,
  0xaf, 0x8e, 0x5b, 0xbe, 0x02, 0xfc, 0x4e, 0x3c, 0xbe, 0xbe, 0xec, 0x3d,
  0xd8, 0x1b, 0x2d, 0x3e, 0x98, 0x55, 0xa9, 0xbe, 0x0d, 0x06, 0xae, 0xbc,
  0x26, 0x8d, 0x17, 0x3e, 0xa5, 0xac, 0x81, 0x3e, 0x82, 0xf2, 0xdc, 0xbb,
  0x9b, 0xc2, 0x90, 0xbd, 0x9f, 0xc4, 0x06, 0x3e, 0xd6, 0xbb, 0x3e, 0xbd,
  0xce, 0xc9, 0xcc, 0xbc, 0x0d, 0x0c, 0x85, 0x3d, 0xf3, 0xf7, 0x0c, 0x3e,
  0x39, 0x58, 0x8b, 0x3a, 0xfb, 0xd9, 0xdf, 0xbd, 0x35, 0x66, 0x4c, 0xbd,
  0x87, 0x30, 0x42, 0x3e, 0x2c, 0xcb, 0xc7, 0x3d, 0x5e, 0x4c, 0xfb, 0xbc,
  0x28, 0x2b, 0x74, 0x3c, 0xd2, 0x99, 0x15, 0x3e, 0xd4, 0xf7, 0x3e, 0x3e,
  0x19, 0x75, 0x93, 0x3d, 0x9d, 0x21, 0x42, 0x3e, 0xba, 0xbe, 0x32, 0x3d,
  0x84, 0xbc, 0x09, 0xbd, 0xb5, 0x0e, 0x05, 0xbd, 0xac, 0xbc, 0xfc, 0xbd,
  0xbb, 0xb6, 0x5f, 0x3e, 0xa6, 0xc9, 0x9e, 0xbb, 0x2d, 0x4c, 0x64, 0xbd,
  0xa5, 0x0d, 0x30, 0x3d, 0xe1, 0x86, 0xca, 0x3d, 0x28, 0x69, 0x2b, 0x3e,
  0x47, 0xaa, 0x06, 0x3d, 0x8b, 0x96, 0x01, 0xbb, 0x97, 0x69, 0x07, 0xbd,
  0xea, 0x69, 0x57, 0x3e, 0xf3, 0x35, 0x1b, 0xb9, 0x04, 0x98, 0xde, 0x3d,
  0x29, 0xd0, 0x64, 0xbb, 0xa6, 0x63, 0xe0, 0x3d, 0xfa, 0xc8, 0xd5, 0xbd,
  0x03, 0x79, 0x35, 0x3e, 0xdd, 0x2a, 0x84, 0x3e, 0x6d, 0xa9, 0xe6, 0x3d,
  0x17, 0xa6, 0x73, 0xbe, 0x98, 0x43, 0x27, 0x3e, 0xa3, 0x6a, 0x38, 0x3e,
  0xb6, 0x89, 0x0a, 0xbe, 0x03, 0x1d, 0xb6, 0xbd, 0x3b, 0x4a, 0x06, 0x3c,
  0xad, 0xa8, 0x1d, 0xbc, 0xa9, 0xfd, 0x44, 0x3e, 0xc1, 0xf2, 0x77, 0xbd,
  0x68, 0xe3, 0x9e, 0x3c, 0xd1, 0x4d, 0xd6, 0xbd, 0x36, 0x21, 0x50, 0xbd,
  0x38, 0x82, 0x32, 0xbe, 0x77, 0x01, 0xa0, 0xbd, 0x22, 0x99, 0x2d, 0x3e,
  0x73, 0xa2, 0x27, 0xbe, 0x88, 0xa8, 0x29, 0xbe, 0xe2, 0xd0, 0xb3, 0x3d,
  0x5a, 0x1d, 0xbc, 0xbd, 0x2d, 0x48, 0x9b, 0xbe, 0xf7, 0x69, 0x45, 0xbd,
  0x77, 0xf9, 0x93, 0x3d, 0xea, 0x7b, 0x28, 0xbb, 0xf3, 0x01, 0x63, 0x3e,
  0xe9, 0xb2, 0xb4, 0xbc, 0x76, 0x19, 0x90, 0x3d, 0xed, 0x47, 0xf6, 0xbd,
  0x80, 0x89, 0x7f, 0x3b, 0x91, 0xb6, 0xbc, 0x3b, 0xb0, 0xd4, 0x5a, 0xbe,
  0xaf, 0x73, 0x48, 0x3e, 0xa4, 0x94, 0x96, 0xbd, 0xa5, 0x89, 0x6b, 0xbe,
  0x8e, 0x48, 0x32, 0x3a, 0x91, 0xfa, 0x22, 0x3e, 0x15, 0xaa, 0x4e, 0x3d,
  0x40, 0x84, 0x7f, 0xbd, 0xd1, 0xf3, 0x81, 0x3d, 0xc4, 0x0b, 0x32, 0xbc,
  0xe9, 0x1b, 0x22, 0x3e, 0xce, 0xf5, 0x84, 0x3d, 0x10, 0xf1, 0xe3, 0xbd,
  0xcc, 0x98, 0x99, 0xbd, 0xc6, 0xe3, 0x75, 0xbd, 0x3b, 0x93, 0xae, 0xbe,
  0xa2, 0x4e, 0x53, 0x3d, 0x15, 0x8d, 0x6a, 0x3e, 0xb1, 0x56, 0x39, 0x3e,
  0x10, 0xb1, 0x8c, 0xbe, 0xd2, 0x9d, 0x72, 0x3e, 0x33, 0xba, 0xbe, 0x3e,
  0xc7, 0x40, 0x56, 0xbe, 0x63, 0x22, 0x6d, 0xbd, 0x8c, 0x34, 0x4c, 0xbe,
  0x9b, 0xb9, 0xb3, 0xbc, 0xe2, 0x04, 0xc4, 0x3d, 0xd0, 0xbe, 0x39, 0xbd,
  0x45, 0xfa, 0xaa, 0x3d, 0xe1, 0x4e, 0x9f, 0xbe, 0xe6, 0x69, 0x7f, 0xbe,
  0x8b, 0xc0, 0x98, 0xbe, 0x5f, 0x76, 0x47, 0xbd, 0x13, 0xc1, 0x84, 0xbe,
  0x10, 0x9a, 0x15, 0xbe, 0x71, 0xdd, 0xe4, 0xbc, 0x1a, 0xdf, 0x86, 0xbe,
  0xb7, 0x8c, 0xbd, 0xbe, 0xbe, 0xc2, 0x87, 0xbe, 0x80, 0xaa, 0xb3, 0xbc,
  0xc3, 0x2c, 0xc2, 0x3c, 0xfb, 0x4a, 0xfe, 0x3b, 0xa0, 0x3e, 0x66, 0x3e,
  0x60, 0xa1, 0xc2, 0xbd, 0x2d, 0xc2, 0x0e, 0x3e, 0x80, 0xdd, 0x3e, 0xbf,
  0xa0, 0x9e, 0x89, 0xbe, 0x7d, 0x10, 0x95, 0xbe, 0x6e, 0x51, 0xf4, 0x3d,
  0x0d, 0x3f, 0x80, 0xbe, 0x27, 0x03, 0x63, 0xbe, 0x5a, 0x19, 0x73, 0xbe,
  0xbc, 0x8c, 0x43, 0xbf, 0x5e, 0xcd, 0x6e, 0xbf, 0xe1, 0x56, 0x23, 0xbe,
  0x12, 0x13, 0xa4, 0x3d, 0x20, 0x58, 0x88, 0xbe, 0x0a, 0xfa, 0xaa, 0x3d,
  0x97, 0x6c, 0xcf, 0xbe, 0x75, 0x57, 0xf0, 0x3d, 0x7c, 0xc9, 0x8a, 0xbd,
  0x6e, 0x5e, 0x33, 0xbf, 0xd1, 0x29, 0x88, 0xbe, 0x6f, 0xc6, 0x62, 0xbe,
  0xca, 0x99, 0x92, 0x3d, 0x84, 0xe2, 0x66, 0xbe, 0xac, 0xeb, 0x11, 0xbe,
  0x5f, 0xbb, 0x76, 0x3d, 0x01, 0xb1, 0xaa, 0xbe, 0x4c, 0x38, 0xbc, 0xbe,
  0x97, 0x18, 0x5a, 0xbe, 0xf5, 0xac, 0xa6, 0x3c, 0x6d, 0xeb, 0x60, 0xbd,
  0x8c, 0x27, 0x23, 0x3e, 0xb4, 0xca, 0xc2, 0x3e, 0x53, 0x22, 0xd4, 0xbd,
  0xd0, 0xc4, 0x0b, 0xbe, 0x17, 0x27, 0xfd, 0xbe, 0xa4, 0x81, 0x00, 0xbe,
  0x27, 0x68, 0x4b, 0x3e, 0xa8, 0x6f, 0x98, 0xbe, 0x5d, 0x09, 0x8b, 0xbc,
  0x6a, 0xf8, 0x90, 0xbe, 0x55, 0x20, 0x02, 0xbd, 0xfe, 0x17, 0x96, 0x3d,
  0x0b, 0x5c, 0xbd, 0x3e, 0x01, 0xc2, 0xd7, 0x3e, 0x60, 0xb7, 0x05, 0x3e,
  0xb3, 0xd9, 0x0f, 0xbe, 0x47, 0xa1, 0xd3, 0xbe, 0x7e, 0x65, 0x4d, 0x3c,
  0x5d, 0x58, 0x25, 0x3d, 0xea, 0x4c, 0x92, 0x3b, 0xf3, 0xe7, 0x0a, 0x3e,
  0x30, 0x77, 0x43, 0x3d, 0xf0, 0xe1, 0x63, 0x39, 0x78, 0x6a, 0x16, 0x3e,
  0x90, 0x53, 0xa5, 0xbd, 0x63, 0xda, 0x6e, 0xbe, 0x0f, 0xc3, 0xad, 0x3d,
  0xcd, 0xbe, 0xf4, 0xbc, 0xe0, 0x46, 0x3b, 0xbe, 0xef, 0x06, 0x5d, 0x3e,
  0xb4, 0x07, 0x26, 0xbe, 0xd8, 0x49, 0xaf, 0xbd, 0x90, 0xd8, 0xb4, 0xbe,
  0x77, 0xb8, 0x57, 0xbd, 0x8e, 0x5f, 0xda, 0xbd, 0x85, 0xe4, 0x0b, 0x3e,
  0xe0, 0x76, 0x4f, 0x39, 0x66, 0x84, 0x07, 0xbd, 0xd1, 0xc5, 0xf7, 0x3d,
  0x41, 0x93, 0x98, 0xbc, 0x0f, 0xf3, 0x10, 0xbe, 0x50, 0xa0, 0xfc, 0xbe,
  0xae, 0xd1, 0x94, 0x3e, 0x8b, 0xb6, 0x24, 0x3b, 0x37, 0x69, 0x07, 0xbe,
  0x11, 0xca, 0x56, 0x3e, 0x85, 0xe8, 0xc4, 0xbc, 0x99, 0x5e, 0x8d, 0xbe,
  0x87, 0x1d, 0xd9, 0xbe, 0xdd, 0xf0, 0xc4, 0xbd, 0x0e, 0x7e, 0x9f, 0xbd,
  0x0b, 0x6b, 0x6c, 0x3d, 0xc6, 0x09, 0xe5, 0x3c, 0xba, 0xcd, 0xcc, 0x3c,
  0xde, 0x46, 0x70, 0xbb, 0x10, 0xc1, 0x85, 0x3d, 0xc4, 0xd1, 0xab, 0xbd,
  0x56, 0x8e, 0x23, 0xbf, 0xce, 0x2a, 0x85, 0x3e, 0x4e, 0xd8, 0x24, 0x3d,
  0x94, 0x88, 0x2a, 0xbd, 0xdf, 0x1b, 0x8f, 0x3e, 0x88, 0x2a, 0x4c, 0xbd,
  0xb9, 0x88, 0xfc, 0xbd, 0xf1, 0x50, 0x7b, 0xbe, 0xe5, 0xca, 0xcc, 0xbd,
  0x1c, 0xd9, 0x2d, 0xbd, 0x1c, 0xb9, 0x4d, 0xbe, 0x0f, 0x68, 0x5d, 0x3d,
  0x2d, 0x96, 0xc9, 0x3d, 0x75, 0xae, 0x89, 0x3d, 0xeb, 0x2e, 0x6d, 0x3e,
  0x52, 0x47, 0x1e, 0xbe, 0xe5, 0xd0, 0xae, 0xbe, 0x1d, 0x95, 0xb5, 0x3e,
  0x79, 0x06, 0x22, 0x3c, 0x8f, 0x2d, 0xe9, 0xbc, 0x5f, 0x6e, 0xa2, 0x3c,
  0x4e, 0xc7, 0xe0, 0xbd, 0x34, 0x23, 0xa2, 0xbe, 0x62, 0x42, 0x99, 0xbd,
  0xf7, 0x0d, 0xd6, 0xbd, 0xae, 0x5a, 0x16, 0xbe, 0xcb, 0xb8, 0x56, 0x3e,
  0xf8, 0xda, 0x45, 0xbc, 0xb8, 0x79, 0x0b, 0x3e, 0x17, 0xbb, 0xdb, 0x3d,
  0x18, 0x8c, 0x07, 0xbc, 0x92, 0x45, 0x9c, 0xbe, 0x25, 0x7d, 0xd8, 0xbe,
  0x70, 0xb4, 0xa3, 0x3e, 0xf0, 0xb8, 0x18, 0x3e, 0xd7, 0x4f, 0x80, 0x3d,
  0x7f, 0xb8, 0xbf, 0x3d, 0xfb, 0xc8, 0xa5, 0xbe, 0xa2, 0x83, 0x8d, 0xbd,
  0x27, 0xdd, 0xa8, 0xbd, 0xce, 0x4e, 0xd8, 0xbd, 0x37, 0xa2, 0x37, 0xbd,
  0x8c, 0xb8, 0xad, 0x3d, 0x89, 0xfc, 0xb0, 0xbd, 0xa9, 0xd9, 0xca, 0x3d,
  0x04, 0xb7, 0xfa, 0x3d, 0x48, 0x30, 0xe2, 0x3d, 0xe0, 0x7d, 0x7d, 0xbd,
  0x57, 0xed, 0xec, 0xbe, 0xa8, 0xff, 0x0c, 0x3e, 0x50, 0xc1, 0xff, 0x3d,
  0x3d, 0xfa, 0xc2, 0xbb, 0x51, 0x00, 0xaf, 0x3d, 0xe4, 0xed, 0x1a, 0xbe,
  0x1a, 0xd4, 0x8f, 0xbd, 0xe7, 0xe1, 0x7f, 0x3a, 0xd0, 0xe1, 0x2b, 0xbd,
  0x2f, 0xa8, 0xae, 0x3d, 0x97, 0x45, 0x1c, 0xbd, 0xd7, 0x36, 0xc1, 0xbc,
  0x6b, 0x4f, 0xe4, 0x3b, 0xdf, 0x84, 0x46, 0x3c, 0xb5, 0xc3, 0x07, 0xbc,
  0x94, 0xfc, 0x07, 0xbe, 0x7a, 0x08, 0xbb, 0xbe, 0x4a, 0x3d, 0x3b, 0x3e,
  0xe4, 0xfe, 0x98, 0x3d, 0x92, 0x32, 0xb3, 0xbc, 0xe4, 0xf8, 0x8c, 0x3e,
  0x1e, 0x99, 0x22, 0xbe, 0x1a, 0x1f, 0x52, 0xbe, 0xef, 0x87, 0x40, 0x3e,
  0xd8, 0x22, 0x8c, 0xbd, 0x0d, 0x8f, 0x68, 0x3c, 0xe4, 0x3f, 0xd5, 0x3d,
  0xe2, 0xf7, 0x6a, 0xbc, 0x14, 0x2b, 0x24, 0x3d, 0xe1, 0x91, 0xb7, 0x3c,
  0x49, 0x60, 0x6e, 0x3e, 0xfa, 0x1c, 0x93, 0xbd, 0x08, 0xc8, 0x18, 0xbf,
  0xee, 0xe8, 0xf3, 0x3d, 0x47, 0xc9, 0x80, 0x3d, 0xe3, 0xe3, 0x9e, 0xbd,
  0x60, 0x3c, 0xde, 0x3e, 0x06, 0x1b, 0x97, 0xbe, 0x68, 0x52, 0x89, 0xbd,
  0xd1, 0x6a, 0xa0, 0x3c, 0x18, 0x8c, 0x4c, 0x3b, 0x41, 0x04, 0xa0, 0xbd,
  0x15, 0x8c, 0x45, 0x3e, 0xdf, 0x61, 0x98, 0xbc, 0x7f, 0x86, 0x46, 0xbc,
  0xef, 0x11, 0xe3, 0x3d, 0xcd, 0xa7, 0x8a, 0xbd, 0x8a, 0xea, 0x34, 0xbd,
  0x73, 0x13, 0x1e, 0xbf, 0xf7, 0x1b, 0x73, 0x3c, 0x26, 0x9b, 0x6d, 0x3d,
  0x82, 0x8a, 0x85, 0xbd, 0x2e, 0x9d, 0x02, 0x3f, 0x88, 0x8a, 0x2c, 0xbd,
  0xec, 0x3d, 0xb8, 0xbe, 0xf2, 0x94, 0x0d, 0xbe, 0xf0, 0xd0, 0x8c, 0xbd,
  0x85, 0x4f, 0x33, 0x3c, 0x16, 0xa6, 0x75, 0x3d, 0x1f, 0x1a, 0x8e, 0xbc,
  0xc5, 0xce, 0xd6, 0x3c, 0x75, 0x9b, 0xec, 0x3d, 0xec, 0x9e, 0xb5, 0x3d,
  0x53, 0x44, 0x9f, 0xbd, 0x4f, 0x61, 0xb9, 0xbe, 0x99, 0x3e, 0x3e, 0x3e,
  0xd6, 0xd2, 0x11, 0x3d, 0x61, 0x8d, 0x44, 0xbe, 0x60, 0xd7, 0x15, 0x3f,
  0x99, 0x0b, 0xfe, 0xbc, 0x6d, 0x28, 0xae, 0xbe, 0x7f, 0x19, 0xbd, 0xbe,
  0xc8, 0x47, 0x43, 0x3d, 0x4c, 0x91, 0x3c, 0x3e, 0x06, 0x76, 0x7a, 0xbc,
  0x59, 0x9f, 0xd4, 0x3b, 0x0c, 0x0c, 0x12, 0x3d, 0xc0, 0xfa, 0x28, 0x3e,
  0xbc, 0x58, 0x3a, 0xbd, 0x6c, 0xd0, 0x42, 0x3d, 0xa9, 0x64, 0xf0, 0xbe,
  0xaa, 0xad, 0x03, 0x3e, 0xc6, 0xb1, 0x15, 0x3c, 0x8e, 0x66, 0x0d, 0xbe,
  0xf0, 0x7e, 0xc9, 0x3e, 0x2a, 0xea, 0x2d, 0xbe, 0x30, 0xea, 0x45, 0xbe,
  0x91, 0xaf, 0x54, 0xbe, 0xec, 0x25, 0x00, 0xbd, 0x67, 0x96, 0xd1, 0xbd,
  0xc5, 0x76, 0x3b, 0xbd, 0x94, 0x48, 0xac, 0x3d, 0x55, 0x96, 0xa0, 0x3d,
  0x91, 0xd6, 0x99, 0x3d, 0xe0, 0x27, 0x4e, 0xbd, 0xd3, 0x3b, 0xb4, 0x3d,
  0xe0, 0x14, 0xc0, 0xbe, 0x59, 0xd2, 0x9c, 0x3e, 0xb4, 0x1b, 0xa3, 0x3d,
  0x98, 0x55, 0xea, 0xbd, 0x66, 0xf9, 0x2f, 0x3e, 0x45, 0xe7, 0x48, 0xbe,
  0xa2, 0xea, 0x1a, 0xbe, 0x09, 0xfe, 0x31, 0xbe, 0x10, 0x9d, 0xac, 0xbd,
  0x2e, 0x66, 0xcd, 0x3c, 0xd4, 0x9d, 0x8d, 0xbc, 0xe6, 0x9e, 0xbd, 0x3d,
  0x93, 0x53, 0x94, 0x3d, 0x0c, 0xcb, 0x7b, 0x3e, 0xb7, 0x5d, 0x9d, 0x3d,
  0xac, 0xdb, 0x5e, 0x3d, 0xd1, 0xee, 0x23, 0xbd, 0x35, 0x2c, 0x92, 0x3d,
  0x4b, 0x65, 0xba, 0xbc, 0x92, 0x32, 0xa9, 0xbd, 0x46, 0xda, 0x23, 0x3e,
  0x5f, 0x96, 0x28, 0x3e, 0xa4, 0x5b, 0x17, 0xbe, 0x94, 0xa9, 0x92, 0x3d,
  0xe3, 0xec, 0xcd, 0xbc, 0x8c, 0x26, 0xaa, 0x3a, 0xfe, 0x91, 0x66, 0x3e,
  0x05, 0x83, 0xa8, 0x3d, 0x2b, 0x1e, 0x66, 0x3d, 0x6b, 0x14, 0x34, 0x3e,
  0x52, 0xde, 0xc9, 0x3d, 0x28, 0xfb, 0x2d, 0x3e, 0x2f, 0x6a, 0xab, 0xbd,
  0xd3, 0x8c, 0xe6, 0xbd, 0x34, 0xc7, 0x09, 0x3e, 0x6e, 0xb1, 0x47, 0x3d,
  0xe4, 0x66, 0xec, 0xbd, 0x4c, 0x15, 0x83, 0x3e, 0xdc, 0x6a, 0xec, 0x3c,
  0xa2, 0xcd, 0x32, 0xbd, 0x72, 0xc0, 0xca, 0xbd, 0xb9, 0x20, 0x00, 0x3d,
  0x39, 0x3c, 0x01, 0x3e, 0x92, 0xb7, 0x49, 0x3d, 0x82, 0x61, 0x8b, 0xbe,
  0x78, 0x05, 0xb7, 0xbb, 0x31, 0x3c, 0x43, 0x3d, 0x5c, 0x65, 0xe8, 0xbc,
  0x33, 0x1a, 0x46, 0xbd, 0xd6, 0x70, 0xcc, 0xbc, 0xb7, 0x0c, 0x6e, 0xbd,
  0x04, 0x05, 0x70, 0xbe, 0x06, 0x56, 0xe3, 0xbd, 0x84, 0x92, 0x4a, 0x3e,
  0x9e, 0x18, 0x42, 0xbe, 0xb4, 0xa6, 0xc5, 0x3d, 0x13, 0x00, 0xe8, 0xbd,
  0x15, 0x40, 0x8c, 0xbc, 0xba, 0x1e, 0x1f, 0xbe, 0xd7, 0x36, 0x2b, 0xbe,
  0x3c, 0x62, 0x97, 0xbe, 0x46, 0x64, 0x92, 0x3d, 0x3b, 0x31, 0xf8, 0x3d,
  0x07, 0x63, 0xcd, 0xbc, 0x75, 0xb7, 0xc5, 0xbd, 0x50, 0x38, 0x51, 0xbd,
  0x9d, 0x15, 0x16, 0xbe, 0x1d, 0x2f, 0xa5, 0xbd, 0xf4, 0x4c, 0xe2, 0xbd,
  0x7a, 0xd4, 0x7e, 0x3e, 0x42, 0x44, 0xc0, 0xbb, 0xfe, 0x29, 0x5c, 0x3e,
  0xcc, 0x7e, 0x43, 0xbe, 0x93, 0x66, 0xda, 0x3d, 0xc1, 0x58, 0x7c, 0xbd,
  0xd0, 0x3b, 0x74, 0xbe, 0x33, 0xa0, 0xda, 0xbd, 0x4d, 0x35, 0xe6, 0xbc,
  0x60, 0x64, 0x11, 0x3e, 0x9e, 0x6c, 0xa9, 0xbd, 0xce, 0x9f, 0x0f, 0x3d,
  0x3c, 0xfe, 0x81, 0x3e, 0x9b, 0x0f, 0x82, 0xbc, 0x2e, 0xdc, 0x39, 0x3d,
  0x5e, 0x60, 0x66, 0xbd, 0xcf, 0x6f, 0x53, 0x3e, 0x91, 0x5a, 0x3f, 0x3d,
  0x25, 0x30, 0xc4, 0x3d, 0x9c, 0x33, 0x15, 0xbd, 0xff, 0x8a, 0xb8, 0xbd,
  0xe6, 0x5c, 0xe2, 0x3d, 0xa7, 0x6d, 0x89, 0xbe, 0x5a, 0xb8, 0x4b, 0xbe,
  0x5e, 0x2a, 0x34, 0xbd, 0xec, 0x65, 0x76, 0x3c, 0x56, 0x4a, 0xbb, 0x3d,
  0x09, 0x0f, 0xff, 0xbc, 0xb8, 0x6d, 0xd0, 0x3d, 0x61, 0xa3, 0xf4, 0x3d,
  0x6d, 0x8b, 0xc9, 0xbd, 0x25, 0xa9, 0xe2, 0x3d, 0xd7, 0x1d, 0xa7, 0xbc,
  0x0a, 0x05, 0x89, 0x3d, 0xdc, 0x4d, 0x12, 0x3d, 0xcb, 0xd9, 0x2e, 0xbe,
  0x24, 0xaa, 0xeb, 0xbd, 0x69, 0x9d, 0x0e, 0x3e, 0x2b, 0x19, 0x61, 0xbe,
  0x68, 0x8a, 0x59, 0xbe, 0xa9, 0x2d, 0x98, 0xbd, 0x4d, 0x51, 0xa6, 0x3d,
  0x87, 0xb9, 0x60, 0xbc, 0x4b, 0x86, 0x64, 0xbe, 0x12, 0xb3, 0x8d, 0x3d,
  0xb6, 0x4e, 0x11, 0x3d, 0xc4, 0x50, 0x26, 0xbe, 0x15, 0xf0, 0x95, 0x3d,
  0xf1, 0xb6, 0x00, 0x3d, 0x84, 0xac, 0xdd, 0xbd, 0xe4, 0xf5, 0xea, 0xbc,
  0x82, 0xb0, 0x92, 0xbc, 0x8f, 0x66, 0xb4, 0xbd, 0xb3, 0x95, 0x9f, 0xbd,
  0xdb, 0x6f, 0x26, 0x3d, 0x44, 0x27, 0x1b, 0xbe, 0x06, 0x3d, 0x29, 0x3e,
  0x78, 0x06, 0xe9, 0x3b, 0x9e, 0x67, 0x23, 0x3d, 0x76, 0x85, 0x08, 0x3c,
  0x17, 0xd6, 0xc6, 0x3d, 0xeb, 0x51, 0x15, 0x3c, 0x7f, 0x81, 0xb9, 0x3c,
  0xc9, 0x97, 0xad, 0x3b, 0x8d, 0x88, 0x07, 0x3e, 0xd0, 0xc7, 0x92, 0xbc,
  0x66, 0xe6, 0x89, 0xbd, 0xca, 0x8b, 0x8a, 0x3d, 0xde, 0xe5, 0x10, 0xbe,
  0xc6, 0x86, 0x94, 0xbd, 0xde, 0x77, 0x34, 0xbe, 0x2a, 0x67, 0x22, 0xbe,
  0x03, 0x18, 0x85, 0x3d, 0x87, 0xd3, 0x84, 0x3d, 0xbd, 0xac, 0xc2, 0xbd,
  0x94, 0x8c, 0x08, 0xbe, 0x5a, 0xa6, 0xc3, 0x3c, 0x0e, 0xb7, 0xa0, 0xbb,
  0x04, 0x25, 0xa5, 0xbc, 0xf4, 0xa6, 0x22, 0xbe, 0x4c, 0xaf, 0x68, 0xbd,
  0x31, 0xe1, 0xbc, 0x3d, 0x93, 0xd1, 0x34, 0xbd, 0x17, 0x47, 0x1b, 0xbe,
  0xfb, 0x45, 0x03, 0xbe, 0x40, 0x8a, 0x0e, 0xbd, 0x0a, 0x84, 0x96, 0x3c,
  0xd3, 0x92, 0x59, 0xbe, 0x6d, 0x5f, 0xef, 0xbd, 0x46, 0x87, 0x08, 0xbe,
  0x1d, 0x72, 0x5d, 0x3e, 0x2c, 0x69, 0x18, 0x3e, 0xe9, 0x72, 0x5d, 0xbe,
  0x32, 0xd2, 0x7d, 0xbc, 0x28, 0x4c, 0x44, 0xbd, 0x17, 0xcb, 0x06, 0x3e,
  0x00, 0xa3, 0xce, 0x3b, 0x56, 0xc9, 0x0c, 0xbe, 0xdc, 0xff, 0xdc, 0xbd,
  0xab, 0xee, 0xd6, 0x3c, 0xc3, 0x45, 0x78, 0xbd, 0xf0, 0xd6, 0x8c, 0x3d,
  0x00, 0x26, 0x62, 0xbb, 0xaf, 0xcb, 0x78, 0xbe, 0x9f, 0x7a, 0x43, 0x3e,
  0x10, 0x5c, 0x32, 0xbe, 0xa1, 0xff, 0x10, 0xbe, 0xb9, 0x4c, 0x13, 0xbe,
  0x65, 0xbb, 0xc0, 0xbc, 0xfd, 0x8f, 0x8d, 0xbd, 0x61, 0xd3, 0xf4, 0xbc,
  0xdd, 0x37, 0xf5, 0x3c, 0x2c, 0x28, 0x16, 0x3e, 0x17, 0xb0, 0xeb, 0x3d,
  0x82, 0xcf, 0x24, 0x3e, 0x7a, 0xea, 0x35, 0xbe, 0x94, 0x72, 0xc2, 0x3d,
  0xa4, 0xf1, 0xaa, 0x3d, 0x0e, 0xc0, 0x3a, 0xbe, 0x74, 0x18, 0x75, 0xbd,
  0x88, 0xcb, 0x02, 0xbe, 0x3c, 0x2f, 0xbb, 0x3c, 0xa6, 0x91, 0xe1, 0x3b,
  0xec, 0x45, 0xcb, 0x3b, 0x48, 0xab, 0xdd, 0xbd, 0xb7, 0x3c, 0x79, 0xbd,
  0xf9, 0x75, 0xd9, 0xbd, 0x51, 0xc0, 0xc7, 0xba, 0x44, 0xa7, 0x01, 0xbd,
  0x96, 0xdd, 0x4e, 0x3e, 0xbc, 0x8f, 0x5d, 0xbb, 0x0b, 0x2e, 0x83, 0xbd,
  0xd9, 0x29, 0x8e, 0x3d, 0x1f, 0x9b, 0x29, 0xbc, 0x2f, 0xff, 0x46, 0xbe,
  0x27, 0xb2, 0x62, 0xbe, 0xcb, 0x59, 0x96, 0x3d, 0x05, 0x5e, 0x0b, 0x3d,
  0x31, 0x21, 0x9d, 0x3d, 0x53, 0x1f, 0xe1, 0xbd, 0x85, 0x97, 0x58, 0xbe,
  0xd3, 0xb0, 0x5d, 0xbb, 0xe0, 0x15, 0xbf, 0xbd, 0x8f, 0x2b, 0xd9, 0xbc,
  0xc8, 0x04, 0xaa, 0x3d, 0x67, 0x9b, 0xba, 0x3d, 0xa2, 0xbb, 0xee, 0x3b,
  0xfe, 0xb2, 0x3b, 0xbd, 0xbd, 0x7f, 0xa7, 0xbb, 0xaf, 0xf6, 0xc2, 0x3d,
  0x5a, 0x46, 0x04, 0xbe, 0x57, 0x2f, 0xaa, 0xbc, 0xd0, 0xfa, 0xc7, 0x3d,
  0x7d, 0x26, 0xc9, 0x3d, 0x32, 0xfe, 0x85, 0x3d, 0xb2, 0xfe, 0x44, 0xbe,
  0x45, 0x4f, 0xf0, 0xbd, 0xb0, 0x47, 0x80, 0xbe, 0x34, 0xd8, 0xb9, 0xbd,
  0x9a, 0x2d, 0x4f, 0xbd, 0x2b, 0x9a, 0x1d, 0xbd, 0x33, 0x7c, 0xb0, 0x3d,
  0x5b, 0x61, 0x60, 0x3c, 0x2b, 0x03, 0xb5, 0xbd, 0xdb, 0x75, 0x1f, 0x3d,
  0x87, 0x43, 0x20, 0x3d, 0x3f, 0xad, 0x5d, 0xbe, 0x50, 0x8f, 0x39, 0xbe,
  0xc4, 0x89, 0x88, 0xbc, 0x17, 0xce, 0x09, 0xbe, 0xd8, 0xe6, 0xe4, 0xbd,
  0xb1, 0x01, 0xaa, 0xbe, 0xa2, 0xc4, 0x9f, 0x3c, 0x27, 0x7e, 0x18, 0x3c,
  0x83, 0x6b, 0x16, 0xbe, 0x32, 0xf1, 0xf1, 0x3d, 0xc1, 0x78, 0xc3, 0xbd,
  0x33, 0x89, 0x0d, 0x3d, 0x19, 0x76, 0xa0, 0x3e, 0x4c, 0x13, 0x25, 0xbd,
  0x4b, 0xaa, 0x4e, 0xbd, 0x6f, 0xff, 0x80, 0x3c, 0x96, 0xac, 0x03, 0xbd,
  0x94, 0x1c, 0xac, 0xbd, 0xd5, 0x36, 0xab, 0xbe, 0xe0, 0xc2, 0xc5, 0xbe,
  0xfc, 0x2d, 0x27, 0xbf, 0x82, 0x93, 0x48, 0xbd, 0x74, 0x1d, 0x96, 0x3e,
  0x70, 0x4c, 0xf3, 0xbc, 0x59, 0x05, 0x20, 0xbf, 0xc8, 0xe7, 0xa6, 0xba,
  0x97, 0xb3, 0xce, 0xbe, 0x84, 0x3e, 0x01, 0xbf, 0x6e, 0x01, 0xab, 0x3e,
  0x31, 0x4f, 0x63, 0xbe, 0x85, 0x86, 0x09, 0x3d, 0xea, 0x40, 0x9e, 0xbd,
  0xc8, 0x40, 0x61, 0xbd, 0x02, 0xfa, 0x00, 0x3e, 0x76, 0xf7, 0x1b, 0x3d,
  0x28, 0xbe, 0xdb, 0x3d, 0x1f, 0x49, 0xc0, 0xbc, 0x78, 0x37, 0x58, 0xbd,
  0x00, 0x39, 0x0f, 0x3e, 0x9a, 0x84, 0x54, 0x3c, 0x88, 0xd8, 0x36, 0x3e,
  0x74, 0x4f, 0x3d, 0xbd, 0x2e, 0x07, 0x40, 0x3e, 0x3a, 0x66, 0x5a, 0xbe,
  0x16, 0x44, 0x63, 0xbc, 0x9a, 0xb7, 0x9d, 0xbe, 0x18, 0x50, 0xcf, 0x3c,
  0x39, 0x73, 0xb8, 0x3d, 0x4b, 0x20, 0x95, 0x3d, 0x75, 0xf1, 0x21, 0x3e,
  0x5a, 0xcb, 0x2f, 0x3e, 0xcd, 0x65, 0x95, 0xbd, 0x7e, 0xcf, 0xbd, 0xbd,
  0xe5, 0x0c, 0xff, 0xbd, 0x0d, 0x5e, 0x36, 0x3e, 0xa9, 0x7d, 0xb2, 0xbc,
  0xc5, 0x1d, 0x64, 0x3e, 0xce, 0x1a, 0xcf, 0x3d, 0xdc, 0x0d, 0x16, 0x3e,
  0x9e, 0x9b, 0x5b, 0xbe, 0x02, 0xbe, 0xd6, 0xbe, 0x6b, 0x38, 0x40, 0xbe,
  0x12, 0xde, 0x7d, 0x3d, 0x5e, 0x44, 0x55, 0x3d, 0x37, 0x4b, 0x21, 0x3e,
  0xbd, 0x75, 0x5a, 0x3d, 0xa8, 0xde, 0x32, 0x3e, 0xcc, 0xd1, 0xe8, 0x3d,
  0x7c, 0xa4, 0xe5, 0xbd, 0x1b, 0xa5, 0x8a, 0xbd, 0x6d, 0x57, 0xab, 0xbd,
  0x2e, 0x3c, 0x22, 0xbd, 0x37, 0xef, 0x41, 0x3e, 0x05, 0x1c, 0xc1, 0x3d,
  0x49, 0x6f, 0xf4, 0xbc, 0x1b, 0x2e, 0x87, 0xbe, 0xe9, 0xbb, 0xb5, 0xbe,
  0xb2, 0x4e, 0x3f, 0xbe, 0x7f, 0x7b, 0x17, 0xbe, 0xce, 0x73, 0x17, 0xbd,
  0x5d, 0xa0, 0xae, 0x3c, 0xae, 0x42, 0x3a, 0x3c, 0xb8, 0xe2, 0x9e, 0x3d,
  0x92, 0x3c, 0xb7, 0xbb, 0xce, 0xf0, 0x24, 0xbe, 0xfc, 0x00, 0x14, 0xbe,
  0x33, 0x52, 0xb0, 0xbe, 0x15, 0xe0, 0x16, 0xbe, 0xd7, 0x75, 0x70, 0x3e,
  0x29, 0x8b, 0x8b, 0x3d, 0x59, 0xf9, 0x16, 0x3e, 0xe6, 0x44, 0xf4, 0x3c,
  0xec, 0x29, 0x1a, 0xbf, 0x2f, 0xe7, 0x85, 0xbe, 0xcf, 0x9a, 0x16, 0xbe,
  0x8b, 0x3d, 0xec, 0x3c, 0x8d, 0x58, 0xd1, 0x3a, 0xbb, 0x33, 0x54, 0xbd,
  0x5b, 0x34, 0xb2, 0xbc, 0x93, 0x15, 0xcc, 0xbd, 0x37, 0x06, 0xc2, 0xbd,
  0xd1, 0xe7, 0xbc, 0xbe, 0x51, 0xdd, 0x78, 0xbe, 0xfd, 0xd7, 0xa8, 0xbc,
  0x53, 0xb0, 0x54, 0x3e, 0x7e, 0xf4, 0x4f, 0x3e, 0x7f, 0x6b, 0x3c, 0x3e,
  0x1a, 0xd6, 0x91, 0xbe, 0xfa, 0x10, 0x5b, 0xbe, 0x73, 0xa1, 0x11, 0xbc,
  0x6e, 0x74, 0x05, 0xbe, 0xf2, 0x00, 0xbe, 0xbd, 0x32, 0x9e, 0x69, 0xbc,
  0xbc, 0x10, 0x94, 0xbe, 0x65, 0xdb, 0xe9, 0xbd, 0xeb, 0x23, 0xcd, 0xbc,
  0x12, 0x29, 0x06, 0x3e, 0x4c, 0x06, 0x89, 0xbe, 0xad, 0xb4, 0x73, 0xbe,
  0x75, 0xb4, 0xc1, 0xbd, 0x72, 0x7a, 0x20, 0xbe, 0xe6, 0xef, 0x29, 0x3e,
  0x82, 0xbe, 0x4e, 0x3e, 0x82, 0x7f, 0x0b, 0xbe, 0x27, 0x2d, 0xdb, 0xbd,
  0x91, 0x58, 0xa8, 0xbe, 0x07, 0xb6, 0xca, 0xbd, 0x18, 0x5c, 0xba, 0xbd,
  0x5a, 0xb8, 0xb3, 0x3c, 0xac, 0xc0, 0x9d, 0xbe, 0x06, 0x2a, 0x64, 0xbd,
  0xa8, 0xb2, 0x06, 0x3e, 0x51, 0xec, 0xb2, 0x3d, 0xc4, 0x74, 0xb2, 0xbe,
  0xdc, 0x81, 0x7f, 0xbe, 0x91, 0x19, 0x3e, 0x3c, 0xdb, 0x4c, 0x73, 0xbe,
  0x03, 0xd2, 0x29, 0x3e, 0x2d, 0x16, 0xe5, 0x3d, 0x4a, 0xcd, 0x85, 0xbd,
  0x3f, 0x4e, 0xfb, 0xbd, 0x42, 0x5f, 0x9c, 0xbe, 0x9e, 0x16, 0x24, 0xbe,
  0x4a, 0xa2, 0x26, 0xbe, 0x0d, 0xf7, 0x4a, 0xbd, 0x24, 0x55, 0xc4, 0xbe,
  0x3f, 0xc6, 0x57, 0xbc, 0x38, 0xcf, 0xc9, 0x3d, 0x4b, 0xc3, 0x33, 0x3e,
  0xc8, 0x17, 0x14, 0xbf, 0xe3, 0x20, 0xb2, 0xbe, 0xbf, 0x49, 0x44, 0x3d,
  0x73, 0x31, 0xc0, 0xbe, 0xdb, 0x26, 0x8f, 0x3d, 0x81, 0xe2, 0xff, 0x3d,
  0xbd, 0xd1, 0x77, 0xbd, 0xe0, 0xeb, 0x8c, 0xbd, 0xaf, 0xf4, 0xa6, 0xbe,
  0x2b, 0x23, 0xc8, 0x3d, 0xd0, 0x3b, 0xda, 0xbd, 0x92, 0x43, 0xcf, 0xbc,
  0x4e, 0x1f, 0xa5, 0xbe, 0x37, 0x6a, 0x11, 0xbe, 0xe6, 0xec, 0xd1, 0xbc,
  0x57, 0x2a, 0xd5, 0x3d, 0xc1, 0xbc, 0x13, 0xbf, 0xe4, 0xac, 0x7d, 0xbe,
  0xb3, 0xd5, 0x02, 0xba, 0x87, 0xd8, 0x42, 0xbe, 0x13, 0x09, 0x5f, 0x3d,
  0xde, 0x57, 0x8e, 0x3d, 0x4b, 0x1f, 0x76, 0xbe, 0xe0, 0x7e, 0xd2, 0x3c,
  0x66, 0xee, 0x1e, 0xbf, 0x30, 0xef, 0x91, 0x3d, 0x8d, 0x30, 0x61, 0xbd,
  0xdc, 0x53, 0xcf, 0xbc, 0x57, 0x71, 0xbd, 0xbe, 0x47, 0xa6, 0x13, 0xbd,
  0xec, 0x67, 0x94, 0x3d, 0x26, 0x06, 0x8d, 0x3b, 0xd7, 0x81, 0xe6, 0xbe,
  0x56, 0x7b, 0xf1, 0xbd, 0xff, 0x4f, 0x06, 0xbd, 0x2c, 0x64, 0x61, 0xbe,
  0x1e, 0x83, 0x87, 0xbe, 0x96, 0x78, 0x7e, 0x3d, 0xfd, 0x12, 0x36, 0xbe,
  0x07, 0x24, 0x04, 0xbd, 0xc4, 0x53, 0x65, 0xbe, 0x3c, 0x74, 0x10, 0xbe,
  0x7a, 0x4f, 0xa5, 0xbd, 0x16, 0x41, 0x06, 0x3d, 0x8f, 0x87, 0x0c, 0xbf,
  0x60, 0xb1, 0x06, 0x3d, 0x65, 0x26, 0x87, 0x3c, 0x9d, 0x6f, 0xb8, 0x3c,
  0x36, 0x50, 0xe6, 0xbe, 0xb6, 0x01, 0x40, 0xbd, 0xd1, 0xcf, 0x06, 0xbd,
  0x39, 0x07, 0x18, 0xbe, 0xcf, 0x28, 0x54, 0x3d, 0xce, 0x72, 0x79, 0xbd,
  0xe5, 0x29, 0x23, 0xbe, 0x85, 0xdf, 0x7b, 0xbc, 0xed, 0x50, 0x13, 0xbf,
  0x79, 0xf1, 0x14, 0xbe, 0x55, 0xa6, 0xdc, 0x3d, 0x98, 0x04, 0xc2, 0x3c,
  0x1d, 0x91, 0xd3, 0xbe, 0x45, 0xc0, 0xf2, 0x3d, 0xf0, 0xf8, 0x14, 0x3e,
  0x8e, 0xc3, 0xa8, 0x3d, 0x7f, 0xe3, 0xab, 0xbe, 0xba, 0x73, 0xc0, 0x3b,
  0x4a, 0xb4, 0xf2, 0xbc, 0x59, 0x89, 0x45, 0xbe, 0xb7, 0xe9, 0xda, 0x3d,
  0xc7, 0x0d, 0x67, 0xbe, 0xb5, 0xfd, 0x05, 0xbd, 0xa3, 0x87, 0x54, 0xbe,
  0xdd, 0x4e, 0x09, 0xbf, 0x40, 0x06, 0x00, 0xbe, 0x82, 0xf6, 0x13, 0x3d,
  0x6b, 0x1b, 0xd9, 0x3c, 0x17, 0x5e, 0x05, 0xbe, 0x72, 0x15, 0xe2, 0x3d,
  0x82, 0xe9, 0x88, 0x3d, 0x6c, 0x9f, 0xbf, 0x3d, 0x8b, 0x22, 0x89, 0xbe,
  0x2f, 0x87, 0x5b, 0x3d, 0x43, 0xdc, 0x3f, 0x3d, 0x86, 0x1f, 0x9a, 0xbc,
  0x09, 0xf7, 0x84, 0xbd, 0x7b, 0xf8, 0x6c, 0xbc, 0x5e, 0xc5, 0x2f, 0x3d,
  0x8d, 0x49, 0x64, 0xbe, 0x1a, 0xdf, 0xd2, 0xbe, 0x4f, 0x50, 0x14, 0xbe,
  0xfc, 0x20, 0x76, 0x3e, 0x63, 0xcf, 0xc2, 0x3b, 0x5b, 0xcb, 0x91, 0x3b,
  0xae, 0xbf, 0x92, 0xbe, 0x46, 0x11, 0x9f, 0x3d, 0xd8, 0xdf, 0x76, 0xbd,
  0x05, 0xe9, 0xa3, 0xbd, 0x10, 0xdc, 0x64, 0xbc, 0x29, 0x18, 0xe0, 0xbe,
  0xe9, 0x10, 0xe6, 0xbe, 0xd4, 0x37, 0x54, 0xbd, 0x72, 0xcc, 0x9f, 0x3d,
  0xc2, 0x34, 0xba, 0xbe, 0x4c, 0x42, 0x5d, 0x3d, 0x2f, 0xb4, 0x78, 0xbe,
  0x20, 0x14, 0xab, 0x3d, 0x70, 0x25, 0xc6, 0xbd, 0x52, 0xa8, 0xb3, 0xbe,
  0xe4, 0xc5, 0xee, 0xbd, 0x0e, 0x63, 0x09, 0x3e, 0xc8, 0xe1, 0x04, 0x3e,
  0x7f, 0x02, 0xb5, 0x3e, 0x5e, 0xd6, 0x69, 0xbd, 0x0e, 0xe8, 0x84, 0xbe,
  0xbe, 0x8f, 0x1f, 0xbe, 0x5a, 0x0c, 0x02, 0xbf, 0xb2, 0x4a, 0x11, 0x3e,
  0x79, 0x49, 0x20, 0x3e, 0xb0, 0xca, 0x67, 0xbe, 0x19, 0x97, 0x52, 0xbc,
  0xb3, 0x08, 0x65, 0xbb, 0xde, 0x4f, 0xda, 0x3c, 0x75, 0xac, 0x21, 0xbe,
  0x09, 0x06, 0x3f, 0x3e, 0x5b, 0x7d, 0x62, 0xbd, 0x81, 0xe4, 0xbf, 0xbd,
  0xcb, 0xc7, 0x6e, 0xbd, 0x1e, 0x52, 0x01, 0x3e, 0x52, 0xb9, 0x19, 0xbe,
  0xcb, 0x8c, 0x6d, 0xbe, 0x86, 0x1a, 0x88, 0x3d, 0x1c, 0xc7, 0x48, 0xbe,
  0xe2, 0xb0, 0xfe, 0x3c, 0x70, 0x1a, 0xdb, 0x3d, 0x35, 0x46, 0x37, 0xbd,
  0xea, 0x7f, 0x72, 0xbc, 0xf2, 0x84, 0x69, 0x3e, 0xda, 0xbf, 0x63, 0xbd,
  0x34, 0x95, 0xa9, 0x3d, 0xf7, 0xd4, 0x89, 0xbd, 0x66, 0x66, 0xbd, 0xbc,
  0xcf, 0xc4, 0x36, 0xbd, 0x4f, 0xf6, 0x17, 0xbe, 0xdb, 0x8e, 0x7c, 0x3e,
  0xfb, 0x20, 0xdc, 0xbd, 0x45, 0xbe, 0xb5, 0xbd, 0xb5, 0xff, 0x06, 0x3d,
  0x07, 0x41, 0x5b, 0xbe, 0x77, 0x4c, 0xc8, 0x3d, 0x22, 0x09, 0xa8, 0xbc,
  0x90, 0x50, 0x67, 0xbd, 0x64, 0x32, 0x09, 0xbd, 0x1a, 0x2f, 0x52, 0x3e,
  0x03, 0x30, 0xe9, 0xbc, 0xa2, 0x4c, 0x28, 0x3e, 0x89, 0xd8, 0x31, 0x3d,
  0x80, 0x65, 0x71, 0xbd, 0x4c, 0xec, 0x04, 0x3e, 0xda, 0xcc, 0x87, 0xbd,
  0x1e, 0x11, 0xbe, 0x3e, 0x47, 0x54, 0x39, 0xbe, 0x84, 0x15, 0x13, 0xbe,
  0x61, 0xa9, 0x28, 0x3e, 0xcc, 0x10, 0x7d, 0xbd, 0x03, 0x08, 0x15, 0x3e,
  0xbc, 0xeb, 0x83, 0xbd, 0x8f, 0xe8, 0x60, 0xbb, 0x49, 0xa3, 0x5e, 0xbd,
  0xcf, 0xe9, 0xa4, 0x3e, 0x71, 0xc3, 0x1f, 0xbe, 0x04, 0xb5, 0x9c, 0xbc,
  0xa2, 0x24, 0x0c, 0x3e, 0x62, 0xdd, 0xcd, 0xbd, 0x20, 0x73, 0xb1, 0xbc,
  0x63, 0x1f, 0x48, 0x3e, 0x7b, 0x84, 0x7f, 0x3e, 0xf0, 0xb0, 0x8d, 0xbd,
  0xe7, 0x9c, 0x19, 0xbe, 0x8a, 0x7a, 0xb8, 0x3d, 0x36, 0xa1, 0xd6, 0xbd,
  0xbc, 0x36, 0x50, 0x3e, 0x3f, 0xe2, 0xeb, 0xbd, 0x4e, 0xfa, 0x9c, 0xbd,
  0x7d, 0xdc, 0xf5, 0xbc, 0xa3, 0x7e, 0x47, 0x3e, 0xf5, 0x4c, 0xc0, 0xbd,
  0x18, 0x14, 0x97, 0x3d, 0x8d, 0xd8, 0x01, 0x3d, 0x7e, 0x75, 0x9e, 0xbd,
  0x36, 0x0e, 0xb5, 0x3d, 0x5c, 0xe1, 0x67, 0x3b, 0xb9, 0x97, 0x2c, 0x3e,
  0xbc, 0xeb, 0xde, 0xbd, 0xc1, 0x0a, 0x9f, 0xbd, 0xb5, 0x8f, 0x60, 0x3d,
  0xe7, 0x09, 0x13, 0xbe, 0x92, 0x63, 0x7d, 0x3e, 0x50, 0xa2, 0xf5, 0x3c,
  0x16, 0xfc, 0xe5, 0x3c, 0x23, 0x45, 0xe1, 0xbb, 0xb9, 0xb9, 0xe5, 0x3c,
  0x04, 0xeb, 0x9e, 0x3d, 0x0a, 0x4f, 0x80, 0xbd, 0xc4, 0x3b, 0x67, 0x3d,
  0x16, 0xc5, 0x89, 0xbb, 0x97, 0x4a, 0x2c, 0xbd, 0x38, 0xe7, 0x7d, 0x3d,
  0xc7, 0x59, 0x57, 0x3e, 0xec, 0x1b, 0xe6, 0xbc, 0x9a, 0x12, 0x8d, 0x3d,
  0x5b, 0xf3, 0xb4, 0x3d, 0x1c, 0xf4, 0x15, 0x3e, 0x65, 0x0d, 0x00, 0x3e,
  0xf5, 0x39, 0xdb, 0xbc, 0x83, 0x60, 0x1c, 0xbc, 0x8e, 0x79, 0x5d, 0xbd,
  0x18, 0xb2, 0x3a, 0x3e, 0x57, 0x36, 0xc3, 0x3d, 0x21, 0x5d, 0xbb, 0xbd,
  0x65, 0x53, 0xd5, 0x3d, 0xc0, 0xda, 0xcc, 0xbb, 0xa0, 0x75, 0xdb, 0xbc,
  0xa6, 0x29, 0x07, 0x3e, 0xb5, 0x61, 0xb3, 0x3d, 0x6c, 0x05, 0x22, 0xbe,
  0x54, 0xe0, 0xde, 0xbd, 0x47, 0xbb, 0x30, 0x3e, 0xf4, 0x2b, 0x03, 0x3e,
  0x4c, 0x0c, 0x69, 0x3d, 0x79, 0x11, 0x9e, 0xbd, 0x16, 0xcb, 0xdb, 0xbd,
  0x4e, 0x3f, 0x0f, 0xbb, 0xa0, 0x96, 0x07, 0x3e, 0x7c, 0x7a, 0x54, 0xbd,
  0x8b, 0x7f, 0xbf, 0x3d, 0x3b, 0x5a, 0x90, 0x3d, 0xa8, 0xce, 0x01, 0x3d,
  0xd9, 0x17, 0xc8, 0xbd, 0x29, 0x2f, 0x49, 0x3e, 0x82, 0x73, 0x79, 0x3e,
  0x82, 0x4e, 0x9f, 0xbd, 0xe6, 0x34, 0x2f, 0x3d, 0x74, 0x1f, 0xa0, 0x3d,
  0xb5, 0x3c, 0x34, 0x3b, 0x13, 0x35, 0xe4, 0x3b, 0x85, 0x92, 0x8b, 0xbd,
  0xc2, 0x9f, 0x77, 0xbe, 0x43, 0xa7, 0xe1, 0x3d, 0xf7, 0x51, 0x30, 0x3e,
  0xcb, 0x4f, 0x3e, 0x3b, 0xc5, 0xdc, 0xeb, 0xbb, 0xdf, 0x11, 0x47, 0x3d,
  0xb6, 0x6e, 0x46, 0xbd, 0x57, 0xa7, 0x96, 0xbd, 0xbb, 0x03, 0x75, 0x3d,
  0xa0, 0x93, 0xba, 0x3e, 0xdb, 0x54, 0xfd, 0xbd, 0xf5, 0xfb, 0x94, 0x3d,
  0x07, 0x69, 0x00, 0x3d, 0xd2, 0x5f, 0x74, 0xbd, 0xdd, 0xe6, 0xc2, 0x3d,
  0x74, 0x62, 0xdc, 0x3d, 0xc1, 0x03, 0x09, 0xbe, 0x10, 0xca, 0x16, 0x3e,
  0x22, 0xcc, 0x29, 0x3d, 0xcf, 0xb7, 0x53, 0x3c, 0xf9, 0xf6, 0x9c, 0x3d,
  0x19, 0x6b, 0xa3, 0x3d, 0x7f, 0x05, 0xbd, 0x39, 0x61, 0x0b, 0x60, 0xbe,
  0xf5, 0xe4, 0x2c, 0xbd, 0x98, 0x7e, 0x7c, 0xbd, 0xbb, 0xb1, 0x89, 0xbd,
  0x12, 0xf9, 0xfc, 0xbd, 0x14, 0x78, 0x5a, 0x3d, 0xf9, 0x1a, 0x1a, 0x3e,
  0x44, 0x92, 0x6f, 0x3e, 0x9c, 0x69, 0x76, 0xbe, 0x7b, 0x76, 0x47, 0xbe,
  0x2d, 0x35, 0xa9, 0x3d, 0x7e, 0x1d, 0x29, 0x3d, 0x23, 0x46, 0xc6, 0x3c,
  0xbe, 0x6d, 0x83, 0xbd, 0xbc, 0xce, 0x9a, 0xbe, 0x49, 0xe8, 0xd2, 0xbd,
  0xe1, 0x59, 0xec, 0xbe, 0xa8, 0x8b, 0xff, 0x3d, 0x5c, 0x9b, 0x2e, 0xbe,
  0x55, 0x11, 0x0b, 0x3d, 0x38, 0xb0, 0x18, 0xbe, 0xea, 0x25, 0x5b, 0xbe,
  0x71, 0x11, 0x82, 0xbe, 0xd8, 0x81, 0x31, 0x3e, 0x09, 0x77, 0xf8, 0x3d,
  0x05, 0x0f, 0xb0, 0xbd, 0x15, 0x60, 0x37, 0xbc, 0x2f, 0xf2, 0x04, 0x3d,
  0xb8, 0x5f, 0xcc, 0x3c, 0x96, 0x9f, 0xd4, 0x3c, 0xf8, 0x1d, 0x64, 0xbf,
  0x09, 0x2c, 0x72, 0xbc, 0x2b, 0x85, 0x14, 0xbf, 0xb6, 0xe5, 0x22, 0xbe,
  0x30, 0xa2, 0x46, 0xbf, 0x1c, 0xb1, 0xd8, 0x3c, 0xe5, 0xdb, 0xd5, 0x3d,
  0x77, 0xd9, 0x16, 0xbf, 0xa1, 0x54, 0x3f, 0xbe, 0x39, 0x45, 0xd8, 0x3d,
  0x73, 0x17, 0xb1, 0xbe, 0x6b, 0x2b, 0x41, 0xbe, 0xf5, 0xd6, 0xcb, 0x3d,
  0xd9, 0x74, 0x38, 0x3d, 0xb2, 0x76, 0x01, 0x3e, 0x93, 0xec, 0xae, 0x3d,
  0xeb, 0x3f, 0xd7, 0xbe, 0x97, 0x21, 0x37, 0xbd, 0xcb, 0x9f, 0x72, 0x3c,
  0xdc, 0x48, 0xaf, 0xbc, 0x35, 0xd8, 0x46, 0x3e, 0x6e, 0x5f, 0x28, 0xbf,
  0x5e, 0x96, 0x00, 0xbe, 0x34, 0x5d, 0x9c, 0xbe, 0xfb, 0x49, 0xdb, 0xbd,
  0xaf, 0x36, 0xbc, 0xbc, 0xe1, 0xfb, 0xa9, 0x3d, 0x5d, 0x7c, 0x2a, 0xbd,
  0xa6, 0x2f, 0x5e, 0x3d, 0x43, 0x53, 0x0a, 0x3e, 0xf5, 0xed, 0x9a, 0x3d,
  0x30, 0x0d, 0x66, 0x3c, 0xd7, 0x8b, 0x91, 0x3d, 0x5b, 0x0b, 0xa3, 0x3d,
  0xfc, 0xc2, 0x6b, 0x3d, 0x8e, 0x99, 0x32, 0xbe, 0xba, 0x45, 0x7e, 0x3e,
  0x70, 0x6f, 0x09, 0xbf, 0x39, 0x0d, 0xaf, 0xbe, 0x12, 0xb8, 0x0d, 0x3e,
  0x35, 0x27, 0xad, 0x3e, 0x35, 0x07, 0x64, 0x3e, 0xeb, 0x8b, 0xd4, 0x3c,
  0xd3, 0xdc, 0x5b, 0x3c, 0x03, 0xf3, 0xfc, 0x3d, 0x87, 0x6a, 0x53, 0x3d,
  0xa2, 0x92, 0xae, 0xbd, 0x9d, 0x6f, 0x07, 0x3c, 0x61, 0xf9, 0x8d, 0xbe,
  0x47, 0xa0, 0x53, 0xbd, 0x5f, 0x9c, 0x40, 0xbe, 0x95, 0xdb, 0x85, 0xbd,
  0x92, 0x29, 0x50, 0x3e, 0x71, 0xb7, 0x00, 0xbf, 0x9b, 0x6b, 0x97, 0xbe,
  0x50, 0x86, 0xb3, 0xbe, 0x39, 0x36, 0x2e, 0xbf, 0x27, 0x0b, 0x48, 0x3e,
  0x4f, 0x39, 0x43, 0x3c, 0x1c, 0xb2, 0xf8, 0xbd, 0x81, 0x43, 0xf4, 0x3d,
  0x7f, 0x86, 0xf5, 0xbd, 0x5f, 0x19, 0xfa, 0xbd, 0x67, 0x48, 0xfe, 0x3d,
  0xc3, 0x98, 0x3c, 0xbe, 0x3c, 0x5a, 0x43, 0x3d, 0x83, 0xe6, 0x53, 0xbe,
  0xef, 0x6f, 0x4d, 0xbc, 0xb7, 0x3e, 0xf2, 0x3e, 0xd1, 0x0e, 0x69, 0xbf,
  0xf8, 0x1a, 0x79, 0xbe, 0xd9, 0xa9, 0xdb, 0xbe, 0x94, 0x0f, 0x30, 0xbf,
  0x63, 0x20, 0x19, 0x3e, 0x25, 0x58, 0x08, 0x3e, 0xe2, 0xce, 0xbb, 0xbc,
  0x5a, 0xbc, 0x1d, 0xbc, 0x34, 0xcb, 0x85, 0xbd, 0x12, 0xee, 0x27, 0xbd,
  0xc0, 0xa8, 0x82, 0xbb, 0xba, 0x51, 0x14, 0xbe, 0x3f, 0xfb, 0x17, 0x3d,
  0xb4, 0xd3, 0x9d, 0xbd, 0x59, 0xbb, 0x14, 0xbe, 0xcb, 0x71, 0xd3, 0xbb,
  0x42, 0x5f, 0x5c, 0xbf, 0xa0, 0x95, 0xf3, 0xbd, 0x20, 0xef, 0x1a, 0xbe,
  0x58, 0x15, 0xe9, 0xbe, 0xa3, 0xac, 0x99, 0x3d, 0x60, 0x6a, 0x09, 0x3d,
  0xb5, 0xee, 0xbe, 0xbe, 0xd8, 0xe3, 0x8c, 0x3d, 0x55, 0x19, 0x12, 0xbe,
  0x80, 0x32, 0x19, 0x3e, 0x5a, 0xc9, 0x25, 0xbe, 0x51, 0xc1, 0x1b, 0xbc,
  0x55, 0x5b, 0x82, 0xbb, 0xf8, 0x6d, 0x47, 0xbe, 0x5c, 0xaa, 0x88, 0xbd,
  0x0f, 0x70, 0xe3, 0x3d, 0xf8, 0xb6, 0x07, 0xbf, 0xc4, 0xb9, 0x0c, 0xbe,
  0xce, 0x92, 0xfb, 0xbd, 0x41, 0xcf, 0x5e, 0x3d, 0x1a, 0x40, 0x6c, 0x3e,
  0xb3, 0xce, 0x4d, 0xbd, 0x3e, 0xf0, 0x01, 0xbe, 0xf0, 0x5b, 0x48, 0x3d,
  0xe8, 0x99, 0xad, 0xbd, 0x9c, 0x33, 0x35, 0x3e, 0xb3, 0x9b, 0xa4, 0x3d,
  0xc3, 0xf8, 0x80, 0xba, 0x80, 0x38, 0x34, 0x3d, 0x11, 0x34, 0x4f, 0xbe,
  0x81, 0x70, 0x4b, 0xbd, 0x26, 0xc3, 0xae, 0xbc, 0xc1, 0xfa, 0xd7, 0xbe,
  0x65, 0x9a, 0xe3, 0xbd, 0x08, 0x2a, 0x23, 0xbc, 0x17, 0x85, 0x67, 0x3e,
  0x76, 0xaf, 0x22, 0x3e, 0x36, 0xf4, 0xdc, 0xbd, 0xf0, 0x48, 0x59, 0xbe,
  0x80, 0xac, 0x40, 0x3d, 0x29, 0xa2, 0x26, 0xbe, 0x33, 0x7e, 0x83, 0xbd,
  0xd9, 0x2a, 0x08, 0xbd, 0xcb, 0xb0, 0xdb, 0x3b, 0xa2, 0xef, 0x24, 0x3d,
  0x78, 0xfe, 0xb1, 0x3d, 0x58, 0x96, 0x63, 0x3c, 0x04, 0xab, 0x86, 0xbe,
  0xe9, 0x81, 0x84, 0xbe, 0x92, 0x87, 0x23, 0x3d, 0x7a, 0xf1, 0xe5, 0xbd,
  0x76, 0x5d, 0x04, 0x3e, 0xd1, 0x29, 0x42, 0x3e, 0xda, 0x78, 0x36, 0xbe,
  0xc7, 0x36, 0xda, 0xbd, 0xa4, 0x3c, 0x8a, 0xbb, 0x48, 0xe9, 0x39, 0xbe,
  0x62, 0xe2, 0xcd, 0xbc, 0x7c, 0x40, 0x83, 0xbd, 0x82, 0xb3, 0xd7, 0x3d,
  0xd0, 0x2b, 0x87, 0x3d, 0x01, 0x7d, 0xa5, 0x3a, 0x0c, 0x67, 0x2f, 0x3e,
  0x77, 0x84, 0x73, 0xbe, 0xcd, 0x98, 0xaa, 0xbe, 0x36, 0x66, 0x14, 0x3e,
  0xec, 0x8d, 0x35, 0xbe, 0x5d, 0xa6, 0x6f, 0x3e, 0x71, 0xf0, 0xaf, 0x3d,
  0xe4, 0x49, 0xb9, 0xbd, 0x21, 0x01, 0xa3, 0x3c, 0x0c, 0xa8, 0x41, 0x3d,
  0xbe, 0x72, 0x80, 0xbe, 0xe7, 0xe2, 0x76, 0x3d, 0xc8, 0xd4, 0x87, 0x3d,
  0x50, 0x1b, 0xd3, 0x3d, 0x90, 0x0f, 0xdc, 0x3d, 0x3e, 0xa8, 0x04, 0x3e,
  0xda, 0x95, 0xe8, 0xbd, 0x73, 0x3d, 0x35, 0xbe, 0x55, 0xb6, 0x94, 0xbe,
  0x73, 0xde, 0x3a, 0x3e, 0xbb, 0xf6, 0xb9, 0xbd, 0xcc, 0x6a, 0x51, 0x3e,
  0x15, 0x6f, 0x33, 0x3e, 0xff, 0x84, 0x14, 0x3d, 0x94, 0x08, 0xee, 0xbd,
  0x15, 0x57, 0x8a, 0x3a, 0xc4, 0x29, 0x27, 0xbe, 0xb7, 0x32, 0xe9, 0x3c,
  0xe3, 0x33, 0x16, 0x3e, 0x82, 0x75, 0xe3, 0x3d, 0xb7, 0x87, 0x9b, 0x3d,
  0x5f, 0xe2, 0x40, 0x3d, 0x9d, 0xaa, 0xad, 0x3d, 0x4d, 0x11, 0x47, 0xbe,
  0x9e, 0x6c, 0x52, 0xbe, 0x91, 0x45, 0x05, 0x3e, 0xf8, 0xe4, 0x59, 0xbd,
  0xb7, 0xde, 0x3b, 0x3e, 0x55, 0xf5, 0x9f, 0x3d, 0xe8, 0xe6, 0xe0, 0x3c,
  0x75, 0x69, 0x3a, 0xbe, 0x5f, 0x1a, 0xba, 0x3b, 0xa5, 0x61, 0x9d, 0xbe,
  0x0a, 0x23, 0xcc, 0x3d, 0x08, 0xa3, 0x46, 0xbd, 0x22, 0xf4, 0x20, 0x3c,
  0x00, 0x22, 0x2b, 0x3d, 0x73, 0xb4, 0x5b, 0x3a, 0x8a, 0x46, 0xef, 0x3d,
  0x7a, 0xc0, 0x37, 0xbe, 0xe8, 0xc2, 0xa3, 0xbe, 0x6e, 0xf9, 0xda, 0x3d,
  0xb1, 0x9e, 0xe0, 0xbd, 0xf3, 0x19, 0x10, 0x3e, 0x07, 0xc2, 0xd3, 0x3c,
  0x3f, 0x18, 0x83, 0x3e, 0xc4, 0xbd, 0x3d, 0xbe, 0x03, 0x5c, 0xf8, 0x3d,
  0x99, 0x05, 0x46, 0xbe, 0xfd, 0xe3, 0xba, 0xbc, 0x6b, 0xb2, 0x26, 0x3e,
  0xc2, 0x97, 0xbf, 0xbd, 0x6a, 0x1d, 0x5c, 0x3d, 0x4d, 0xac, 0x2e, 0xbc,
  0x0e, 0xa7, 0x75, 0x3b, 0x5e, 0xd9, 0x04, 0xbe, 0x17, 0x3f, 0xd0, 0xbe,
  0x5d, 0x22, 0xd8, 0x3d, 0xc4, 0xab, 0xc4, 0xbd, 0xec, 0x34, 0x3e, 0x3e,
  0x31, 0x32, 0x2e, 0xbb, 0xa8, 0x6f, 0x74, 0x3e, 0x14, 0x23, 0x96, 0xbd,
  0x46, 0x4c, 0x1d, 0xbf, 0xba, 0x69, 0x86, 0xbe, 0xf5, 0x31, 0x83, 0x3d,
  0x6d, 0xf6, 0x6e, 0x3c, 0xe4, 0x79, 0xc0, 0x3c, 0xc6, 0xc5, 0x99, 0x3b,
  0xa6, 0x30, 0x64, 0xbe, 0xb0, 0x44, 0x9c, 0x3b, 0x8a, 0xbf, 0x46, 0x3d,
  0x59, 0x24, 0xd9, 0xbc, 0x7a, 0xab, 0x77, 0xbe, 0x54, 0x0f, 0xb0, 0xbd,
  0x9f, 0x33, 0xc2, 0x3b, 0xb7, 0x96, 0xbf, 0x3d, 0xce, 0xdf, 0x88, 0x3d,
  0xb1, 0x4d, 0x2c, 0x3d, 0xb4, 0xc2, 0x39, 0xbf, 0x69, 0x04, 0xf5, 0xbd,
  0x22, 0x56, 0x4e, 0x3c, 0x01, 0x9d, 0x26, 0x3e, 0xfb, 0x5b, 0x6d, 0x3d,
  0x2d, 0x3a, 0x02, 0x3d, 0x83, 0x10, 0x9f, 0xbe, 0xe9, 0x12, 0xec, 0xbe,
  0x0f, 0xc0, 0xbe, 0xbe, 0x65, 0x66, 0xf2, 0xbe, 0x62, 0x22, 0x23, 0x3e,
  0xa8, 0x27, 0x8c, 0xbd, 0x7b, 0x53, 0x3b, 0xbf, 0xc0, 0xe8, 0x81, 0xbe,
  0x10, 0x2e, 0xe7, 0xbe, 0x5a, 0x2b, 0x09, 0xbf, 0x2d, 0x10, 0x1b, 0x3e,
  0x8e, 0x9a, 0x8f, 0xbe, 0x30, 0x6d, 0xfd, 0x3d, 0x65, 0xd7, 0xfe, 0x3c,
  0x70, 0xf2, 0xeb, 0xbe, 0x23, 0xab, 0x53, 0x3d, 0x50, 0x7a, 0xe9, 0xbe,
  0xb4, 0x94, 0x73, 0xbc, 0xd5, 0x1a, 0x2e, 0xbe, 0x49, 0x92, 0x66, 0xbd,
  0x9b, 0xfb, 0xd2, 0x3d, 0xf4, 0x82, 0xbd, 0xbd, 0xa1, 0xaa, 0x7b, 0x3e,
  0x86, 0x1c, 0x6b, 0xbd, 0xac, 0x0b, 0xb5, 0x3c, 0xdc, 0x05, 0xff, 0xbd,
  0xc1, 0x66, 0xec, 0x3d, 0x70, 0x20, 0x93, 0xbe, 0xd5, 0x0d, 0x0a, 0x3e,
  0x1d, 0xf7, 0xfe, 0xbd, 0xe5, 0x95, 0xb9, 0x3d, 0xd4, 0xe3, 0x2d, 0xbd,
  0xc6, 0xfc, 0x81, 0xbd, 0x8b, 0x6b, 0x92, 0xbd, 0x3b, 0x03, 0x8a, 0xbe,
  0xc5, 0x7f, 0x33, 0xbd, 0xdf, 0x05, 0x04, 0xbe, 0xb2, 0x93, 0xf3, 0xbd,
  0xc5, 0x1a, 0x83, 0x3e, 0x6e, 0x79, 0x23, 0xbd, 0x41, 0xaf, 0x85, 0x3d,
  0xd7, 0x88, 0x64, 0xbe, 0xd7, 0x6f, 0x8c, 0x3d, 0x88, 0xc4, 0xbc, 0xbd,
  0x12, 0xda, 0xb6, 0x3d, 0x7f, 0xea, 0xe3, 0xbd, 0xf2, 0xba, 0x45, 0x3d,
  0x55, 0x34, 0x85, 0xbd, 0xce, 0x68, 0x2b, 0x3e, 0xa5, 0x84, 0xfa, 0xbc,
  0x67, 0x9f, 0xfd, 0xbd, 0xf8, 0x63, 0x46, 0xbd, 0x77, 0x99, 0x41, 0xbe,
  0xfc, 0x2e, 0x64, 0x3c, 0x61, 0xed, 0x45, 0x3e, 0x47, 0x79, 0x1c, 0x3e,
  0xf9, 0xaa, 0xc1, 0x3c, 0xeb, 0x6e, 0x09, 0xbe, 0x28, 0x72, 0xd0, 0x3d,
  0x3f, 0x75, 0xbc, 0xbe, 0x87, 0x6f, 0xc0, 0x3c, 0x37, 0xb6, 0xa7, 0x3d,
  0xd4, 0x67, 0x19, 0x3c, 0xc4, 0xc0, 0xe1, 0xbd, 0xbf, 0x6f, 0x36, 0x3e,
  0x43, 0xf2, 0x09, 0x3e, 0xb8, 0xaf, 0x73, 0xbe, 0xbb, 0xcb, 0x22, 0x3c,
  0x94, 0xb1, 0x98, 0xbe, 0x1e, 0xb0, 0xfd, 0xbd, 0xb2, 0xe6, 0x0d, 0x3e,
  0x63, 0x50, 0xe3, 0x3d, 0xf7, 0x5d, 0x28, 0x3e, 0xcc, 0x20, 0x9e, 0xbe,
  0x4a, 0x3e, 0x8a, 0x3d, 0x7e, 0x54, 0x0e, 0xbe, 0x80, 0xec, 0xd0, 0x3d,
  0xac, 0x79, 0x77, 0x3d, 0xbe, 0x87, 0x38, 0x3d, 0x60, 0x2e, 0xc1, 0xbc,
  0xb3, 0x88, 0xdb, 0x3c, 0x9e, 0xcd, 0x02, 0xbd, 0xac, 0x36, 0x4d, 0xbc,
  0xa7, 0x8f, 0x91, 0xbc, 0xef, 0x07, 0x56, 0xbe, 0xc5, 0xfc, 0xa2, 0xbd,
  0xe4, 0x48, 0xf0, 0x3d, 0x3f, 0x69, 0xfa, 0x3d, 0x7c, 0x26, 0x06, 0x3e,
  0xed, 0x14, 0x43, 0xbd, 0x57, 0x1d, 0x42, 0x3e, 0x93, 0xa0, 0xdf, 0xbc,
  0xac, 0x6d, 0x01, 0x3e, 0x3c, 0xe3, 0x47, 0xbd, 0x2e, 0x72, 0x98, 0x3d,
  0x10, 0x1d, 0xb3, 0xbd, 0xc4, 0xe3, 0x43, 0xbd, 0x63, 0xe6, 0x72, 0xbc,
  0x92, 0xd2, 0x1d, 0x3d, 0x81, 0x7b, 0x25, 0x3d, 0x46, 0xf5, 0x2c, 0xbe,
  0x55, 0x84, 0x7b, 0xbd, 0x99, 0x73, 0x1e, 0x3e, 0x55, 0xd9, 0xdd, 0x3d,
  0xda, 0xe8, 0x62, 0x3e, 0x10, 0x9f, 0x6e, 0xbe, 0x0e, 0x81, 0xd8, 0x3d,
  0xe5, 0xb8, 0x83, 0xbe, 0x2c, 0x43, 0xde, 0xbd, 0xb8, 0x8c, 0x98, 0xbc,
  0xb2, 0x56, 0x00, 0x3e, 0x07, 0xa7, 0x23, 0xbc, 0x64, 0xc6, 0x1f, 0xbd,
  0x75, 0x08, 0x89, 0x3e, 0x07, 0x8a, 0x1e, 0xbd, 0x3b, 0x7e, 0x35, 0x3d,
  0x62, 0x92, 0x85, 0xbd, 0x7f, 0xd8, 0x18, 0xbd, 0x39, 0x15, 0x9e, 0x3d,
  0x4a, 0x2b, 0xe4, 0x3d, 0x6f, 0x03, 0xe3, 0x3d, 0xfd, 0xb7, 0x8f, 0xbe,
  0x22, 0x71, 0xd3, 0x3c, 0x0e, 0xe3, 0x86, 0xbe, 0xd2, 0xc4, 0x87, 0x3d,
  0x0b, 0x12, 0xb2, 0x3c, 0x06, 0x33, 0x9e, 0x3d, 0xb6, 0x3a, 0xc7, 0x3c,
  0xcf, 0xf1, 0x29, 0x3c, 0x53, 0x34, 0xed, 0xbc, 0xb4, 0xd8, 0x19, 0xbd,
  0xda, 0x27, 0xe2, 0x3d, 0xed, 0x22, 0x28, 0xbd, 0x48, 0x27, 0x5c, 0xbd,
  0xd5, 0x70, 0x73, 0x3e, 0xf0, 0x9f, 0x4d, 0x3e, 0x15, 0xc0, 0x92, 0x39,
  0x86, 0xe0, 0xcd, 0x3c, 0x5d, 0x6d, 0xe8, 0x3d, 0x6d, 0xbd, 0x36, 0xbe,
  0x27, 0x07, 0xc5, 0xbd, 0xf8, 0xe5, 0x04, 0xbe, 0xb5, 0x00, 0x25, 0x3e,
  0xc1, 0xd3, 0xe3, 0xbb, 0xe8, 0x12, 0xfd, 0xbc, 0x21, 0xf1, 0x0d, 0x3e,
  0xfc, 0xf5, 0x3f, 0xbb, 0xcb, 0x6b, 0xb0, 0x3a, 0x87, 0xf2, 0xb1, 0x3c,
  0x3a, 0x89, 0x4a, 0xbd, 0xd6, 0x34, 0x1c, 0x3e, 0x7a, 0x67, 0x63, 0x3e,
  0x80, 0x7f, 0x9d, 0x3d, 0xe1, 0xa6, 0xb3, 0x3b, 0x7b, 0xaa, 0x90, 0x3c,
  0x5d, 0xf8, 0x22, 0xbe, 0x73, 0xf6, 0x00, 0xbd, 0x1a, 0xc7, 0x1b, 0xbd,
  0x98, 0xbf, 0x9b, 0x3d, 0xd9, 0x46, 0xc8, 0xba, 0xf1, 0x1a, 0x17, 0x3d,
  0x60, 0x12, 0x3c, 0xbe, 0x27, 0x38, 0xb6, 0xbc, 0xe5, 0xeb, 0xe0, 0x3b,
  0xcb, 0x38, 0x05, 0xbd, 0x85, 0xd7, 0x78, 0xbd, 0xc9, 0x3a, 0x47, 0x3e,
  0x80, 0x36, 0x37, 0x3e, 0x2b, 0x8c, 0x35, 0x3e, 0x03, 0xd2, 0x2e, 0xbd,
  0x30, 0xce, 0x54, 0x3d, 0x5c, 0x5f, 0x63, 0xbe, 0x54, 0x7c, 0x7e, 0x3d,
  0x1b, 0xf9, 0x7b, 0x3d, 0xfe, 0x34, 0x3e, 0x3d, 0xe5, 0x7e, 0xab, 0x3a,
  0x07, 0x72, 0xcb, 0x3c, 0xc0, 0x48, 0xb5, 0x3d, 0xe8, 0x5b, 0x9e, 0xbd,
  0x21, 0xa0, 0x8a, 0xbc, 0xc6, 0x78, 0x1e, 0x3e, 0x53, 0x19, 0xbc, 0xbd,
  0xd0, 0x25, 0x3b, 0x3e, 0x9e, 0xf8, 0x8b, 0xbb, 0xa4, 0x8c, 0x84, 0x3e,
  0x17, 0x69, 0x82, 0xbe, 0x42, 0xdf, 0x34, 0xbe, 0xc7, 0x29, 0x85, 0xbe,
  0xd0, 0x79, 0x35, 0x3e, 0xff, 0xf2, 0x07, 0xbe, 0x1e, 0xf5, 0xb3, 0xbc,
  0xa6, 0xe4, 0x9f, 0xbd, 0x53, 0xd8, 0x11, 0xbe, 0x04, 0x9b, 0x97, 0x3d,
  0xdc, 0x15, 0x44, 0xbd, 0xf0, 0x28, 0xe3, 0xbd, 0xbd, 0xd9, 0x0c, 0x3e,
  0xb5, 0x5c, 0xc0, 0xbd, 0x39, 0xeb, 0x7c, 0x3d, 0x21, 0x85, 0x63, 0x3e,
  0xe2, 0xd0, 0x0e, 0x3d, 0xa6, 0xd1, 0x8b, 0xbe, 0xd6, 0x86, 0xb5, 0xbe,
  0xfe, 0xfd, 0x94, 0xbe, 0x6b, 0xc9, 0x1a, 0x3d, 0x9d, 0x59, 0x24, 0xbe,
  0x7f, 0x2b, 0x82, 0xbc, 0x54, 0x7c, 0x6e, 0xbe, 0x20, 0x99, 0x9e, 0xbe,
  0x48, 0xac, 0x60, 0x3e, 0x7e, 0x4a, 0xbc, 0x3d, 0x85, 0xaf, 0x12, 0xbf,
  0xa9, 0x6d, 0xde, 0xbd, 0x03, 0xe6, 0x4e, 0xbd, 0xdc, 0xd0, 0xde, 0xbc,
  0x73, 0xb8, 0xbd, 0x3e, 0xd1, 0xad, 0xf6, 0x3c, 0xa4, 0x84, 0x04, 0xbe,
  0x55, 0x47, 0xcc, 0xbe, 0x6b, 0xdd, 0xdd, 0xbe, 0xa5, 0xcc, 0x31, 0x3d,
  0xca, 0xf1, 0x86, 0x3e, 0x4f, 0x2d, 0x2f, 0x3c, 0xea, 0xe5, 0x69, 0xbe,
  0x4b, 0x50, 0x22, 0x3e, 0xde, 0x50, 0xa0, 0x3e, 0x6f, 0x97, 0x6e, 0x3e,
  0xec, 0xb0, 0x47, 0x3d, 0xd0, 0x23, 0x06, 0xbe, 0x67, 0x9e, 0x8e, 0x3c,
  0x26, 0x72, 0xdd, 0x3e, 0x27, 0xe0, 0xc1, 0x3d, 0xdf, 0x64, 0x99, 0x3d,
  0xdb, 0x61, 0xbc, 0x3c, 0xf0, 0x6b, 0x93, 0xbd, 0xb6, 0x5e, 0x61, 0xbe,
  0x09, 0xc7, 0x14, 0x3e, 0xb2, 0x46, 0x75, 0xbc, 0xd4, 0xc5, 0xaa, 0x3d,
  0x1a, 0x64, 0xe0, 0xbc, 0xaf, 0x8b, 0x13, 0x3e, 0x01, 0x7c, 0x20, 0x3d,
  0xf7, 0x51, 0xdc, 0x3d, 0xd6, 0x69, 0xde, 0xbc, 0x17, 0x05, 0x34, 0x3c,
  0x89, 0x16, 0x41, 0xbe, 0xa4, 0x37, 0x30, 0xbe, 0x38, 0x08, 0x0c, 0xbe,
  0x53, 0x82, 0xd1, 0x3d, 0x22, 0x82, 0x68, 0xbe, 0xae, 0x53, 0x33, 0x3d,
  0xa1, 0x2e, 0x91, 0xbe, 0x6a, 0x22, 0xaa, 0xbd, 0x54, 0xc7, 0x3c, 0x3e,
  0xf6, 0xfe, 0x51, 0xbd, 0x1c, 0x82, 0x6b, 0xbe, 0x13, 0xb3, 0x99, 0x3d,
  0xa5, 0xb2, 0x13, 0x3e, 0x6f, 0xe4, 0xd6, 0x3d, 0x63, 0xf8, 0xac, 0xbd,
  0x72, 0x51, 0xf7, 0x3d, 0x63, 0xb5, 0xbf, 0xbd, 0xed, 0x3a, 0x7f, 0xbe,
  0x13, 0xc2, 0x7b, 0xbe, 0x4d, 0x90, 0xa6, 0x3c, 0x86, 0x71, 0x8d, 0xbe,
  0xc0, 0x66, 0x4a, 0x3e, 0xaa, 0x2d, 0x92, 0xbe, 0xf8, 0x76, 0x96, 0xbd,
  0x37, 0x2a, 0x3a, 0x3d, 0x29, 0x10, 0x0e, 0xbe, 0x03, 0xd9, 0x51, 0xbe,
  0xb5, 0x22, 0xf6, 0xbc, 0xa4, 0xaa, 0x0d, 0xbe, 0x41, 0x88, 0x53, 0xbd,
  0x7a, 0x0b, 0x1c, 0xbc, 0x6d, 0x6e, 0x06, 0x3e, 0x37, 0xaf, 0xb4, 0xbd,
  0x77, 0x0c, 0x23, 0xbe, 0x71, 0xd1, 0x88, 0xbe, 0xd5, 0xfc, 0x75, 0x3d,
  0x33, 0x09, 0xe4, 0xbe, 0xb4, 0xe5, 0x4a, 0xbe, 0xea, 0xa5, 0xb6, 0xbe,
  0x86, 0xf7, 0x95, 0xbd, 0x33, 0xb6, 0x17, 0x3e, 0xa3, 0x5a, 0x02, 0xbe,
  0x31, 0x74, 0x55, 0xbe, 0x96, 0x13, 0x62, 0x3d, 0xbc, 0x39, 0x4f, 0xbd,
  0xeb, 0xfd, 0xe5, 0xbd, 0xa4, 0x29, 0x4b, 0xbd, 0xbb, 0xb0, 0x45, 0x3e,
  0x9c, 0xf8, 0x2b, 0xbd, 0x26, 0xc9, 0xdf, 0xbc, 0x7f, 0x09, 0xf9, 0xbd,
  0xad, 0xc7, 0x2c, 0xbd, 0x2c, 0xf7, 0x7a, 0xbe, 0x2d, 0x11, 0x4c, 0xbe,
  0xb0, 0xfa, 0x44, 0xbe, 0xb6, 0x0d, 0x58, 0x3d, 0x73, 0xec, 0xd3, 0xbd,
  0xb5, 0x9d, 0x13, 0xbe, 0xad, 0x64, 0xe7, 0xbe, 0x01, 0xc5, 0xd6, 0x3d,
  0x40, 0x81, 0x88, 0xbd, 0x3b, 0x6f, 0x30, 0x3d, 0xa6, 0x78, 0x44, 0xbd,
  0xe0, 0x25, 0xf2, 0x3d, 0x90, 0x02, 0xe6, 0x3d, 0xc2, 0xf7, 0xa6, 0x3d,
  0xeb, 0x33, 0xcf, 0xbe, 0x77, 0x76, 0xae, 0xbd, 0x9f, 0x92, 0x86, 0xbe,
  0xe8, 0x3d, 0x32, 0xbe, 0x7f, 0x68, 0xf5, 0xbd, 0x0e, 0x32, 0xcc, 0xbc,
  0x98, 0xf6, 0xd1, 0x3d, 0x2a, 0xfc, 0x90, 0xbd, 0x3f, 0x68, 0xd6, 0xbe,
  0xff, 0xbe, 0x1a, 0x3e, 0xd7, 0xcd, 0x95, 0x3c, 0x38, 0x32, 0x20, 0x3c,
  0x6e, 0x8a, 0x90, 0xbd, 0x0c, 0x4b, 0xfb, 0xbd, 0x07, 0x41, 0x51, 0x3d,
  0xa4, 0x7c, 0x52, 0x3d, 0x19, 0x5e, 0x84, 0xbe, 0x59, 0xdf, 0x16, 0x3e,
  0x0d, 0x1e, 0x88, 0xbe, 0x3e, 0x6d, 0xc0, 0xbe, 0xf1, 0x98, 0x0b, 0xbe,
  0xce, 0xc1, 0x7a, 0xbc, 0x45, 0x99, 0x6a, 0x3e, 0x1c, 0xd8, 0x43, 0xbd,
  0xf3, 0xaa, 0xd8, 0xbe, 0x60, 0xf2, 0xbe, 0x3d, 0x45, 0xdd, 0x25, 0xbd,
  0x07, 0xcf, 0x19, 0x3e, 0x49, 0x0c, 0x9a, 0xbc, 0x59, 0xc3, 0x31, 0x3d,
  0x11, 0xe5, 0x9b, 0x3d, 0xe0, 0xce, 0x8f, 0x3d, 0x77, 0xa2, 0xb5, 0xbe,
  0x2b, 0x8c, 0x03, 0x3e, 0x0b, 0x59, 0x37, 0xbe, 0x25, 0xa9, 0x85, 0xbe,
  0xac, 0x96, 0x29, 0xbe, 0xcf, 0x42, 0xc1, 0xbd, 0x23, 0x61, 0x6d, 0xbd,
  0xf3, 0x7e, 0x99, 0x3d, 0x07, 0x8d, 0x93, 0xbe, 0x44, 0x80, 0xe9, 0x3d,
  0xe2, 0x21, 0x05, 0x3e, 0x6f, 0xd1, 0x06, 0x3d, 0x0d, 0xa1, 0xc6, 0xbb,
  0x81, 0xba, 0x9f, 0x3d, 0xed, 0x43, 0x4e, 0xbd, 0x1b, 0xf9, 0x1c, 0x3c,
  0x0e, 0xfa, 0x77, 0xbe, 0xc2, 0xa5, 0x3c, 0x3e, 0x37, 0x7d, 0x36, 0xbe,
  0x2a, 0x1b, 0xaa, 0xbe, 0x51, 0x9c, 0x9a, 0xbe, 0xa2, 0x73, 0x43, 0x3c,
  0x47, 0x5b, 0x85, 0x3e, 0x60, 0xad, 0x91, 0x3b, 0x52, 0x2c, 0xad, 0xbe,
  0xc1, 0x05, 0x1f, 0xbd, 0x4e, 0xec, 0xfa, 0x3d, 0xef, 0xea, 0x85, 0xbd,
  0xc2, 0xc9, 0x2a, 0x3d, 0x83, 0xa6, 0x4e, 0x3d, 0x6b, 0xc8, 0x09, 0x3e,
  0x90, 0x30, 0x94, 0xbd, 0x85, 0x02, 0x41, 0xbe, 0xa1, 0xeb, 0x0e, 0x3e,
  0xea, 0x4f, 0x8f, 0xbe, 0x50, 0xc1, 0xbb, 0xbd, 0x76, 0x7b, 0xbb, 0xbe,
  0xe6, 0x9f, 0x0c, 0x3b, 0x77, 0xbf, 0x40, 0xbd, 0x58, 0x70, 0x39, 0x3c,
  0xae, 0xbb, 0x09, 0xbf, 0xb5, 0xfb, 0x35, 0x3b, 0xc2, 0xeb, 0x1a, 0x3e,
  0x6a, 0x3a, 0x99, 0x3c, 0x4a, 0xb6, 0x97, 0xbd, 0x92, 0x75, 0xdc, 0x3d,
  0xfa, 0x88, 0xab, 0x3d, 0x95, 0x51, 0x5e, 0xbd, 0xb9, 0xad, 0x10, 0xbc,
  0x60, 0x51, 0x2b, 0xbd, 0xae, 0xd0, 0x77, 0xbe, 0xc7, 0x37, 0xc0, 0x3c,
  0x69, 0xd0, 0x8b, 0xbe, 0x8d, 0xf4, 0xe4, 0x3d, 0x13, 0x15, 0x47, 0x3d,
  0x10, 0x31, 0x78, 0xbd, 0x72, 0x22, 0xd2, 0xbe, 0xa9, 0x4f, 0x6c, 0x3d,
  0x89, 0xf4, 0xa2, 0xbd, 0xdf, 0xef, 0xcd, 0x3c, 0x75, 0x02, 0x8d, 0xbd,
  0x4c, 0x4e, 0x94, 0x3d, 0x64, 0x85, 0xd7, 0x3c, 0xd7, 0x39, 0x95, 0xbd,
  0x07, 0xaf, 0x92, 0xbe, 0x39, 0xe5, 0x3b, 0xbd, 0x8a, 0xfd, 0xbc, 0xbe,
  0xf7, 0x11, 0xf1, 0xbd, 0xb9, 0xc7, 0xc2, 0xbe, 0xfb, 0x6a, 0x79, 0x3a,
  0xca, 0x42, 0xce, 0x3c, 0x29, 0x85, 0xef, 0xbc, 0xb1, 0x70, 0x0c, 0xbf,
  0x8f, 0x19, 0xb5, 0x3d, 0x17, 0x08, 0xe8, 0xba, 0xa1, 0x4c, 0x31, 0x3e,
  0xbf, 0x4d, 0x75, 0xbd, 0x62, 0x6e, 0x8f, 0x3d, 0xac, 0x77, 0x98, 0x3d,
  0x1c, 0x70, 0xbd, 0xbd, 0x32, 0xf2, 0x11, 0xbd, 0xd6, 0x34, 0xcc, 0xbd,
  0xbe, 0x76, 0xc1, 0xbe, 0xc2, 0xd7, 0xfc, 0xbe, 0xe0, 0x46, 0xd0, 0xbe,
  0x68, 0x7b, 0x38, 0x3d, 0xa5, 0xbe, 0x9b, 0x3d, 0x95, 0xd0, 0xd9, 0xbd,
  0x28, 0xe7, 0xfa, 0xbe, 0x7e, 0x3d, 0x2f, 0x3e, 0x11, 0x59, 0xee, 0x3d,
  0x95, 0xec, 0xd9, 0x3d, 0xdc, 0x0d, 0x54, 0x3e, 0xfd, 0x49, 0x0a, 0xbe,
  0x97, 0x39, 0x27, 0xbe, 0x38, 0xf5, 0x95, 0x3d, 0x8d, 0x79, 0x52, 0xbe,
  0x0f, 0xfc, 0x49, 0xbe, 0x69, 0xe9, 0xab, 0xbe, 0x46, 0x56, 0xa6, 0x3d,
  0xc1, 0xb8, 0x48, 0x3e, 0x79, 0xc7, 0xbf, 0xbd, 0x1a, 0xa0, 0xd5, 0x3d,
  0xb9, 0xc3, 0x21, 0x3e, 0x63, 0xc8, 0xc2, 0xbe, 0x8c, 0x8e, 0x72, 0x3d,
  0x4e, 0x16, 0x23, 0x3d, 0x94, 0x7b, 0xa6, 0xbe, 0x08, 0x09, 0xbe, 0xbd,
  0xa5, 0xbe, 0xdc, 0xbd, 0x01, 0x3a, 0x86, 0xbe, 0x4e, 0x25, 0xc0, 0x3d,
  0x71, 0xe7, 0x73, 0xbe, 0x22, 0x6a, 0xc1, 0xbe, 0xcd, 0xc3, 0x2d, 0xbc,
  0xed, 0xa5, 0xf4, 0xbe, 0x74, 0x39, 0x09, 0x3e, 0xa3, 0x1d, 0x48, 0x3e,
  0xa3, 0xeb, 0x01, 0xbc, 0x0e, 0xf7, 0x07, 0xbf, 0x8a, 0x3a, 0xb3, 0xbd,
  0x47, 0x85, 0x07, 0x3f, 0x91, 0x83, 0x3d, 0x3d, 0xd9, 0xec, 0x9d, 0xbe,
  0xa8, 0xa5, 0xab, 0x3c, 0xb1, 0xc8, 0x7a, 0xbe, 0x1f, 0x72, 0xfb, 0xbe,
  0xbd, 0x36, 0x14, 0xbe, 0x6d, 0x97, 0xcf, 0xbd, 0x22, 0xb4, 0x0f, 0xbf,
  0x5c, 0x71, 0x58, 0xbe, 0x2c, 0x51, 0x0f, 0xbf, 0x0a, 0xdb, 0xab, 0x3e,
  0x93, 0x5b, 0x83, 0x3e, 0x20, 0x0c, 0xa2, 0xbd, 0x08, 0xa1, 0x79, 0xbe,
  0xb5, 0xe2, 0xe4, 0x3c, 0x2d, 0x31, 0xd7, 0x3e, 0x05, 0xc1, 0x95, 0x3c,
  0xab, 0xfc, 0x8e, 0xbe, 0x6e, 0x3f, 0x59, 0xbc, 0x7e, 0x12, 0x89, 0xbd,
  0xd5, 0x8c, 0xd2, 0xbe, 0x05, 0x4b, 0xca, 0xbd, 0x6a, 0x7a, 0xd9, 0xbe,
  0x32, 0xa1, 0x39, 0xbe, 0x10, 0xa8, 0xf0, 0xbc, 0x23, 0xc7, 0xcf, 0xbe,
  0x4f, 0xf5, 0xc7, 0x3e, 0xdd, 0xf6, 0x74, 0x3e, 0x65, 0x61, 0x04, 0xbe,
  0xc9, 0x0d, 0x67, 0xbe, 0x82, 0x2e, 0x18, 0x3c, 0x39, 0x7a, 0xb6, 0x3e,
  0x87, 0x9e, 0x5c, 0xbe, 0xe6, 0x25, 0x61, 0x3d, 0xb3, 0x3b, 0x1f, 0x3c,
  0xda, 0xd3, 0xac, 0xbc, 0x7d, 0x47, 0x79, 0xbe, 0xa4, 0x95, 0x12, 0x3e,
  0x87, 0x96, 0xa1, 0xbd, 0x3e, 0xad, 0xab, 0xbe, 0x62, 0xd0, 0xd5, 0xbd,
  0x6a, 0x5e, 0x40, 0xbe, 0xf8, 0x7e, 0xbe, 0x3e, 0xcf, 0x1e, 0x18, 0x3e,
  0x27, 0xc9, 0xf9, 0xbd, 0xcd, 0x89, 0x9d, 0xbe, 0xc5, 0xc1, 0xcb, 0xbc,
  0xa7, 0x63, 0xc4, 0x3e, 0x97, 0x3a, 0xf5, 0x3d, 0xcb, 0xc2, 0x88, 0xbd,
  0xa4, 0x4d, 0x10, 0xbc, 0xec, 0x2f, 0x8f, 0xbd, 0xbe, 0xff, 0x90, 0xbe,
  0x2a, 0x02, 0x25, 0xbd, 0x9a, 0x38, 0x0f, 0xbe, 0x6f, 0x0b, 0x60, 0xbe,
  0xf3, 0x80, 0x98, 0xbd, 0x6c, 0xc3, 0xab, 0xbe, 0xe9, 0xc1, 0x8b, 0x3e,
  0xbf, 0x01, 0x91, 0xbd, 0x0f, 0x8c, 0x55, 0x3e, 0xcc, 0xbe, 0xc9, 0xbe,
  0xbc, 0x3a, 0x89, 0x3d, 0x8b, 0xb0, 0x0b, 0x3f, 0x92, 0xee, 0xdf, 0xbd,
  0x00, 0x3e, 0x74, 0x3d, 0xdb, 0xba, 0x3c, 0x3d, 0x32, 0x00, 0x45, 0xbe,
  0xb6, 0xfe, 0xba, 0xbe, 0x83, 0x6b, 0xd1, 0x3d, 0xd2, 0xba, 0x17, 0x3c,
  0xfd, 0x67, 0x25, 0xbe, 0xb8, 0x78, 0x21, 0xbd, 0x65, 0x5b, 0x8a, 0xbe,
  0x9f, 0xeb, 0x9b, 0x3e, 0x65, 0xaf, 0xa0, 0x3d, 0x92, 0xae, 0x7b, 0x3d,
  0x63, 0x4d, 0xad, 0xbe, 0xd9, 0x6f, 0xbf, 0x3d, 0x4c, 0x16, 0xe9, 0x3e,
  0x1f, 0xeb, 0x6e, 0xbd, 0x0c, 0x00, 0x06, 0xbd, 0x4a, 0x7e, 0x84, 0x3d,
  0x41, 0xc1, 0x6b, 0xbe, 0x31, 0x9e, 0x99, 0xbe, 0x75, 0xec, 0xaa, 0xbc,
  0xa7, 0xc7, 0xc4, 0xbe, 0x42, 0x49, 0x1b, 0x3d, 0x20, 0x1c, 0x49, 0xbe,
  0xd3, 0x0d, 0x51, 0x3e, 0x18, 0xa1, 0xac, 0x3e, 0xad, 0x80, 0xa8, 0xbd,
  0x95, 0x03, 0x72, 0x3d, 0xdd, 0x02, 0x63, 0xbe, 0xf0, 0x11, 0x59, 0x3d,
  0x3d, 0x74, 0x06, 0x3f, 0x21, 0x03, 0x17, 0x3d, 0x92, 0xda, 0xb1, 0x3b,
  0x37, 0x15, 0xc4, 0x3d, 0x31, 0x20, 0x85, 0xbe, 0x42, 0x07, 0xd2, 0xbe,
  0x43, 0x2e, 0x58, 0xbe, 0x6c, 0xf6, 0x4a, 0xbe, 0x32, 0xf7, 0x0e, 0xbe,
  0x9d, 0x59, 0xe4, 0x3c, 0xec, 0x14, 0xc9, 0xbd, 0x9f, 0xbc, 0xc9, 0x3e,
  0x8a, 0xf1, 0x38, 0xbe, 0xf6, 0x61, 0x05, 0x3e, 0xc5, 0x27, 0x7b, 0xbe,
  0x35, 0x1b, 0x3c, 0x3e, 0x14, 0x16, 0x20, 0x3f, 0x49, 0x10, 0xe0, 0x3d,
  0xe6, 0xcf, 0xbc, 0xbd, 0x3d, 0x77, 0x07, 0x3e, 0x00, 0x8b, 0x3d, 0xbd,
  0xa1, 0xc4, 0xa8, 0xbe, 0xe8, 0xec, 0xc9, 0x3d, 0xba, 0x6e, 0x1b, 0xbe,
  0x9d, 0x54, 0xcc, 0xbd, 0xda, 0x24, 0x8e, 0xbd, 0x2f, 0x2e, 0x8c, 0xbe,
  0xca, 0x9e, 0x81, 0x3e, 0x61, 0x2d, 0xa5, 0x3d, 0x4d, 0x4c, 0x90, 0xbd,
  0x04, 0xaf, 0xb3, 0xbe, 0x68, 0xf6, 0x26, 0x3d, 0xf3, 0x14, 0xd3, 0x3e,
  0x9d, 0x3f, 0x1e, 0x3e, 0x27, 0x6e, 0xc7, 0xbd, 0x6a, 0x12, 0xa6, 0x3d,
  0x97, 0xa6, 0x8b, 0xbd, 0x56, 0xa0, 0x88, 0xbe, 0x8d, 0x52, 0xaa, 0xbd,
  0xf7, 0x85, 0x3c, 0xbe, 0xda, 0xd8, 0x10, 0xbe, 0xa0, 0xd5, 0x3e, 0x3d,
  0x4f, 0x42, 0x20, 0xbe, 0xa1, 0xc5, 0x94, 0x3e, 0x14, 0x85, 0x64, 0x3e,
  0xa2, 0xb6, 0xd7, 0x3e, 0x76, 0x19, 0x6e, 0xbe, 0xf4, 0x8c, 0x8e, 0x3d,
  0x98, 0x06, 0xbc, 0x3e, 0x6e, 0x37, 0x5a, 0x3e, 0x04, 0x1e, 0x95, 0xbd,
  0xf9, 0x3f, 0x05, 0x3e, 0x4b, 0xda, 0x1a, 0xbe, 0xd7, 0xcf, 0xac, 0xbe,
  0x4a, 0xda, 0x41, 0xbe, 0x2d, 0xe3, 0x10, 0xbe, 0xa4, 0x75, 0x3f, 0xbe,
  0xb8, 0x17, 0x04, 0x3e, 0x11, 0xbb, 0x78, 0xbe, 0x96, 0x02, 0x89, 0x3e,
  0xac, 0xc9, 0xdb, 0x3d, 0xa2, 0x7a, 0xa9, 0xbd, 0x4a, 0xbe, 0xaa, 0xbe,
  0xe8, 0xb4, 0xee, 0x3d, 0x4a, 0xfc, 0x4c, 0x3e, 0x0f, 0x13, 0x69, 0x3d,
  0xc0, 0xa5, 0x5b, 0xbe, 0x11, 0x56, 0x75, 0x3d, 0x21, 0x4d, 0x67, 0x3d,
  0xf6, 0x7c, 0x89, 0xbe, 0x18, 0x2b, 0x33, 0xbd, 0x28, 0x09, 0x5a, 0xbe,
  0xd1, 0xdc, 0x55, 0x3d, 0x4d, 0x31, 0xab, 0xbc, 0xcd, 0x2f, 0x42, 0xbe,
  0x16, 0x0b, 0xa7, 0x3e, 0x20, 0x4c, 0x87, 0xbb, 0x78, 0xd1, 0xba, 0x3e,
  0xb5, 0xd4, 0x96, 0xbe, 0xf7, 0x43, 0xe8, 0x3c, 0xd9, 0x09, 0xe4, 0x3d,
  0x32, 0xd7, 0x2d, 0x3d, 0x3d, 0x99, 0x4c, 0x3e, 0xfa, 0xd7, 0xf1, 0x3d,
  0x87, 0xe8, 0x25, 0xbe, 0x70, 0xef, 0x46, 0xbd, 0x9f, 0x34, 0xdd, 0xbd,
  0xe5, 0xc3, 0x4e, 0xbe, 0x3f, 0x1a, 0x3c, 0xbe, 0x84, 0x0a, 0x85, 0x3d,
  0x78, 0x8a, 0xda, 0xbe, 0x70, 0x4e, 0x92, 0x3e, 0x3b, 0x9f, 0x32, 0x3e,
  0xbd, 0x94, 0x26, 0x3d, 0xf6, 0xd5, 0x44, 0xbe, 0x59, 0x9f, 0x7f, 0x3d,
  0x6f, 0xb1, 0x11, 0x3e, 0x39, 0xb1, 0x6a, 0x3d, 0xc1, 0x00, 0x3a, 0xbe,
  0x2a, 0x0d, 0x7f, 0xbd, 0x8e, 0x54, 0xc5, 0xbd, 0x78, 0xf2, 0x27, 0xbf,
  0xb2, 0x7d, 0x4f, 0xbe, 0xe3, 0xc8, 0xcd, 0xbd, 0x09, 0x20, 0x83, 0xbd,
  0x32, 0xa6, 0xbb, 0xbc, 0x09, 0x24, 0x9e, 0xbe, 0xed, 0x6c, 0xc6, 0xbc,
  0x3d, 0x7e, 0x6d, 0x3e, 0x39, 0xe8, 0xb8, 0x3e, 0x6e, 0xf3, 0x4d, 0xbe,
  0x0b, 0x98, 0xb9, 0x3d, 0xa2, 0x1d, 0xaf, 0x3e, 0x72, 0x45, 0xae, 0xbe,
  0xd0, 0x5b, 0xdd, 0x3e, 0xc1, 0x0a, 0x1c, 0xbf, 0xd3, 0x7e, 0x24, 0xbd,
  0x14, 0x75, 0x79, 0xbc, 0xe0, 0xfa, 0x10, 0x3f, 0x06, 0x83, 0x02, 0x3f,
  0x2d, 0xa3, 0x96, 0x3e, 0x8a, 0x91, 0x39, 0xbe, 0xd5, 0x8d, 0x52, 0xbd,
  0xb8, 0x4f, 0xc6, 0x3d, 0x0f, 0xd6, 0x1e, 0x3d, 0x7f, 0xc9, 0x01, 0xbe,
  0xa3, 0x31, 0x48, 0x3d, 0xc4, 0x98, 0x31, 0x3c, 0x51, 0x20, 0x83, 0x3d,
  0xaa, 0x17, 0xd0, 0x3c, 0xba, 0xf0, 0x51, 0x3d, 0xed, 0x8e, 0x2c, 0xbf,
  0x26, 0x0b, 0x8d, 0xbd, 0xf1, 0xba, 0xdf, 0xbe, 0xe1, 0xaa, 0xa1, 0xbe,
  0x39, 0xeb, 0xbd, 0x3d, 0x5d, 0x8b, 0x55, 0x3d, 0x6b, 0x80, 0x04, 0xbe,
  0x2f, 0x21, 0xc1, 0x3d, 0x9c, 0x65, 0x87, 0xbe, 0xfe, 0x31, 0x9d, 0x3d,
  0xc9, 0xa6, 0x34, 0xbe, 0x79, 0x6d, 0xca, 0xbd, 0xac, 0x0e, 0x01, 0x3e,
  0xc1, 0xac, 0x42, 0x3d, 0xda, 0x60, 0x72, 0xbc, 0xcb, 0x9b, 0x8e, 0x3c,
  0xd7, 0x70, 0x1b, 0xbf, 0x60, 0x65, 0x3e, 0xbe, 0x0d, 0x84, 0xa3, 0xbe,
  0xa1, 0x4c, 0x81, 0xbe, 0x54, 0x0e, 0xdd, 0x3e, 0x40, 0x53, 0xb6, 0xbc,
  0x81, 0x8b, 0x9e, 0xbd, 0x7b, 0xd6, 0xb0, 0x3d, 0xaf, 0xa3, 0x8b, 0xbe,
  0x75, 0x29, 0xa6, 0x3d, 0x3f, 0x7c, 0x02, 0xbe, 0xc0, 0xdf, 0x69, 0xbd,
  0xfa, 0xbf, 0x00, 0x3e, 0xf4, 0xe2, 0x4b, 0xbe, 0x82, 0x41, 0x93, 0x3d,
  0x8b, 0xf0, 0x63, 0xbc, 0xae, 0xad, 0x49, 0xbf, 0xab, 0xd4, 0x41, 0xbe,
  0xee, 0x9e, 0x40, 0xbe, 0x06, 0xbc, 0xcf, 0x3d, 0x90, 0x4e, 0x89, 0x3e,
  0xf9, 0xc1, 0xf1, 0x3b, 0x1a, 0x4f, 0xed, 0xbd, 0xed, 0x1e, 0xe9, 0x3d,
  0xd8, 0x79, 0x6a, 0xbe, 0x90, 0x1f, 0x03, 0xbd, 0xb4, 0xe2, 0x1c, 0x3e,
  0xd0, 0x3f, 0x99, 0x3c, 0x97, 0x64, 0x41, 0x3d, 0xc4, 0x17, 0x71, 0xbd,
  0xdb, 0xcb, 0x31, 0xbe, 0x08, 0x9c, 0x32, 0x3e, 0xf7, 0xe0, 0x45, 0xbf,
  0xcd, 0x19, 0x1d, 0x3e, 0x7d, 0x9a, 0x9a, 0xbd, 0xb3, 0x7e, 0x3d, 0x3d,
  0x6c, 0xd9, 0x9f, 0x3e, 0x6a, 0x7d, 0x0a, 0x3d, 0x24, 0x9e, 0x5a, 0xbe,
  0xc5, 0x73, 0x17, 0x3c, 0x9a, 0x42, 0x78, 0xbe, 0x35, 0x02, 0xaf, 0xbd,
  0xfa, 0xa8, 0x13, 0x3c, 0x51, 0xef, 0x23, 0x3d, 0xd5, 0x2c, 0x7f, 0x3c,
  0x4b, 0xbe, 0x93, 0xbb, 0xe2, 0xb2, 0xd6, 0xbb, 0xf8, 0x76, 0xdb, 0x3d,
  0x71, 0xb0, 0x41, 0xbf, 0xaa, 0xac, 0xf0, 0xb9, 0x57, 0x12, 0x31, 0xbe,
  0xef, 0xb7, 0xbf, 0x3d, 0x59, 0x27, 0xb7, 0x3e, 0xf5, 0xbc, 0x3a, 0x3d,
  0x25, 0x95, 0xae, 0xbd, 0x69, 0x9e, 0x7a, 0xbc, 0x9c, 0xec, 0xb2, 0xbe,
  0xc3, 0x0a, 0xab, 0xb8, 0xed, 0x5e, 0x4e, 0x3d, 0x8c, 0x38, 0xde, 0xbb,
  0x91, 0xaf, 0x7e, 0xbd, 0xfc, 0x2a, 0xa3, 0x3c, 0x9d, 0xe7, 0x2d, 0x3e,
  0xe0, 0x8e, 0x47, 0x3d, 0x96, 0x41, 0x3c, 0xbf, 0xa7, 0xa9, 0x1e, 0x3e,
  0x34, 0x24, 0x8b, 0xbe, 0xd7, 0xfb, 0x9a, 0x3b, 0x3a, 0x2c, 0xe4, 0x3e,
  0xdd, 0xf9, 0x05, 0x3e, 0x72, 0x17, 0x19, 0x3d, 0x7b, 0xdf, 0x1f, 0xbd,
  0xa8, 0x6b, 0x51, 0xbe, 0x43, 0xcb, 0xf8, 0x3d, 0x0f, 0x88, 0x0a, 0x3e,
  0x86, 0x68, 0xaf, 0xbd, 0x54, 0xc6, 0xa4, 0xbc, 0x85, 0x32, 0x72, 0xbd,
  0x7d, 0xb5, 0xff, 0xbd, 0x94, 0x06, 0x09, 0xbe, 0x40, 0x31, 0x24, 0xbf,
  0xb0, 0xd7, 0x2e, 0x3d, 0x72, 0xe1, 0xa9, 0xbe, 0x35, 0x4c, 0x16, 0xbe,
  0xf9, 0xb4, 0xc6, 0x3e, 0xac, 0xc5, 0x27, 0xbd, 0xb3, 0x4a, 0xc4, 0x3b,
  0xd6, 0xd8, 0x9d, 0xbd, 0x92, 0x92, 0xdb, 0xbd, 0x11, 0xff, 0x6d, 0xbc,
  0xcf, 0xa9, 0xb5, 0x3b, 0xc2, 0xd7, 0xec, 0xbd, 0x6d, 0x96, 0x43, 0x3a,
  0xea, 0x53, 0x1c, 0x3e, 0xce, 0x54, 0x53, 0xbd, 0x45, 0x2d, 0x52, 0xbe,
  0x2c, 0x02, 0x2d, 0xbf, 0x1b, 0x21, 0x09, 0xbe, 0x26, 0xcc, 0x10, 0xbe,
  0x3a, 0x23, 0x52, 0xbe, 0xe4, 0x46, 0x04, 0x3f, 0xd7, 0x18, 0x45, 0xbe,
  0xad, 0xb4, 0x10, 0xbe, 0xbb, 0xc2, 0x5e, 0xbd, 0xa3, 0x62, 0x93, 0xbd,
  0x79, 0xa1, 0xea, 0xbc, 0xa5, 0x5a, 0xf1, 0x3d, 0x3c, 0x2c, 0x89, 0xbd,
  0x46, 0xe1, 0x86, 0x3d, 0x30, 0x70, 0xe8, 0xbb, 0x9a, 0x66, 0xfc, 0xbd,
  0x5c, 0x1a, 0xe4, 0xbe, 0x18, 0x5b, 0x1b, 0xbf, 0x30, 0x46, 0x82, 0xbe,
  0x38, 0x84, 0x8b, 0xbe, 0x94, 0x5f, 0xb7, 0xbe, 0xe2, 0xdb, 0xba, 0x3e,
  0x66, 0xf8, 0xdc, 0xbd, 0x88, 0x6b, 0x99, 0xbd, 0x90, 0xd3, 0xd0, 0x3b,
  0x95, 0x42, 0x82, 0x3d, 0x95, 0x2e, 0xda, 0x3d, 0x05, 0x55, 0x2c, 0x3d,
  0xc3, 0x92, 0x2f, 0xbe, 0x93, 0x96, 0xe9, 0x3d, 0xf9, 0xd0, 0x1c, 0x3e,
  0xec, 0x0e, 0x87, 0xbe, 0x61, 0xe3, 0x64, 0xbe, 0xc3, 0xce, 0x07, 0xbf,
  0x7d, 0x49, 0xe6, 0xbd, 0x99, 0x2e, 0xbf, 0xbe, 0x21, 0x18, 0xac, 0xbe,
  0xa3, 0x6a, 0xf7, 0x3e, 0x4c, 0xb4, 0x76, 0xbd, 0x5a, 0x82, 0xf7, 0x3d,
  0xf8, 0xd5, 0xbb, 0xbc, 0x85, 0xbf, 0x79, 0xbd, 0xf0, 0xc5, 0xb6, 0xbd,
  0x22, 0x12, 0x2f, 0xbd, 0x87, 0xb0, 0x01, 0xbe, 0x76, 0x26, 0x4c, 0x3c,
  0x5a, 0x3a, 0xa0, 0x3a, 0x67, 0x85, 0x68, 0xbe, 0x54, 0x57, 0x86, 0xbe,
  0x1e, 0xdb, 0x9c, 0xbe, 0xba, 0x45, 0x1f, 0xbe, 0x67, 0xfd, 0x31, 0xbe,
  0xef, 0x00, 0x96, 0xbe, 0xb0, 0xb2, 0xb3, 0x3e, 0x7a, 0x70, 0xea, 0xbc,
  0xc5, 0x5c, 0x63, 0x3d, 0x8b, 0x71, 0x47, 0x3d, 0x4c, 0x20, 0x22, 0xbe,
  0x88, 0x8b, 0xb6, 0x3d, 0xcb, 0x3c, 0xcd, 0x3d, 0x7e, 0x3b, 0x40, 0x3d,
  0x52, 0x29, 0xcd, 0x3a, 0xfe, 0x92, 0x94, 0xbe, 0x16, 0x32, 0xf4, 0xbc,
  0x79, 0x29, 0xb6, 0xbe, 0xc7, 0x6b, 0xc6, 0xbe, 0xcd, 0xdf, 0xf2, 0xbd,
  0x44, 0x5b, 0xb2, 0xbe, 0x05, 0x05, 0x34, 0xbe, 0xa4, 0xb6, 0xd1, 0x3e,
  0xad, 0xe4, 0xa3, 0xbc, 0x11, 0x9f, 0xed, 0xba, 0x4c, 0x00, 0x13, 0x3e,
  0xd5, 0x0e, 0xbc, 0xbd, 0xcb, 0x18, 0x0e, 0x3e, 0x65, 0xdf, 0xf2, 0xbd,
  0xd7, 0x27, 0x68, 0xbc, 0xa6, 0x80, 0xf5, 0xbc, 0xaa, 0x1e, 0x9d, 0xbd,
  0xb6, 0xd9, 0x34, 0x3e, 0x60, 0xe7, 0x84, 0xbd, 0xcf, 0x6d, 0x13, 0x3e,
  0xee, 0xa0, 0xc0, 0x3d, 0xa8, 0x70, 0x01, 0xbe, 0xc8, 0x3b, 0x8d, 0xbc,
  0xac, 0x49, 0xdb, 0xbc, 0x47, 0x7b, 0xbe, 0x3d, 0x19, 0x54, 0x47, 0xbe,
  0x20, 0x79, 0x15, 0x3e, 0xaf, 0x6a, 0x8b, 0xbe, 0x7b, 0x19, 0x04, 0xbe,
  0x12, 0xd0, 0x6e, 0xbc, 0xd2, 0xdb, 0x8a, 0x3e, 0x5e, 0x94, 0x7e, 0x3d,
  0x19, 0x17, 0x01, 0x3e, 0xed, 0x10, 0xf2, 0xbb, 0x4c, 0xa3, 0xaa, 0xbd,
  0x47, 0x7f, 0xaa, 0xbd, 0x62, 0xb3, 0xe5, 0x3d, 0xb6, 0x0a, 0x10, 0x3d,
  0x25, 0xec, 0x48, 0x3e, 0x32, 0x82, 0x1d, 0xbc, 0x01, 0x03, 0xe9, 0x3d,
  0x73, 0x5f, 0xad, 0x3e, 0xe9, 0xcf, 0xa9, 0xbd, 0xd2, 0x90, 0x3a, 0xbe,
  0x52, 0x79, 0x56, 0xbd, 0x59, 0xdb, 0x9c, 0xbd, 0xdc, 0x00, 0x75, 0xbd,
  0xcb, 0xa5, 0x01, 0x3e, 0xd3, 0xc9, 0xf2, 0x3d, 0xfc, 0x0c, 0x24, 0xbd,
  0xd2, 0x15, 0x4d, 0xbe, 0x12, 0x72, 0x8a, 0xbd, 0xd6, 0x77, 0xe2, 0xbd,
  0x32, 0x45, 0x0a, 0xbe, 0x51, 0xf6, 0x4c, 0xbe, 0xcb, 0x88, 0xb3, 0x3c,
  0x9e, 0x15, 0xb5, 0xbd, 0xe1, 0xdb, 0x79, 0xbe, 0x28, 0x2a, 0xba, 0xbd,
  0x14, 0x15, 0xa6, 0xbd, 0xf2, 0x8a, 0x02, 0x3e, 0x3f, 0x24, 0x95, 0x3d,
  0x90, 0x0c, 0xed, 0x3d, 0x46, 0x04, 0x57, 0xbe, 0x5f, 0xa2, 0xb5, 0xbc,
  0x28, 0x94, 0xef, 0x3d, 0xbc, 0x56, 0x44, 0xbe, 0xfa, 0x07, 0x33, 0xbc,
  0x7b, 0x8e, 0xd0, 0xbd, 0x3b, 0x2a, 0x3e, 0x3c, 0xd6, 0x7a, 0x8b, 0xbe,
  0x76, 0x92, 0x64, 0xbe, 0xba, 0x92, 0x13, 0xbd, 0x82, 0x84, 0xe9, 0xbd,
  0x24, 0xaa, 0xf7, 0xbd, 0x39, 0x0f, 0x44, 0xbe, 0xb6, 0xfb, 0x23, 0xbd,
  0xc5, 0x5b, 0x77, 0x3d, 0xd5, 0x67, 0x4f, 0xbd, 0x7c, 0xd5, 0x81, 0xbe,
  0xef, 0x0f, 0x39, 0xbe, 0x24, 0x45, 0x62, 0x3d, 0x8f, 0x52, 0x11, 0x3e,
  0x5e, 0x7b, 0xe4, 0xbc, 0xde, 0x75, 0x0f, 0xbe, 0xe9, 0xb8, 0x29, 0xbe,
  0xd6, 0x74, 0x83, 0xbe, 0x05, 0xb9, 0x9d, 0xbd, 0x39, 0xfb, 0x15, 0xbe,
  0x31, 0x03, 0x60, 0xbe, 0x48, 0x5c, 0x59, 0xbd, 0x38, 0xae, 0x99, 0xbe,
  0x48, 0x02, 0x8b, 0x3c, 0x12, 0x9a, 0xc2, 0x3d, 0x4a, 0x30, 0x0a, 0xbe,
  0xf0, 0x27, 0x60, 0xbe, 0x2a, 0xc0, 0xb8, 0x3d, 0xf0, 0x86, 0x49, 0xbd,
  0x11, 0xd1, 0x1d, 0x3b, 0x78, 0x33, 0x26, 0xbd, 0x75, 0xe2, 0x1a, 0xbe,
  0xa3, 0x2f, 0x08, 0xbd, 0x2e, 0x38, 0x01, 0x3d, 0xf3, 0x7c, 0x4c, 0xbe,
  0xad, 0x3f, 0x9c, 0xbb, 0x54, 0x23, 0x14, 0xbe, 0xe2, 0xd4, 0x0b, 0xbe,
  0x5c, 0xe4, 0xe1, 0xbe, 0x1a, 0x95, 0xbe, 0xbd, 0x8a, 0xd5, 0xfa, 0x3d,
  0x52, 0xe3, 0x62, 0x3d, 0xe4, 0x68, 0x6e, 0xbe, 0x63, 0x83, 0xac, 0xbd,
  0xf6, 0xec, 0xd9, 0x3d, 0x83, 0xf3, 0x34, 0xbe, 0x4f, 0x6c, 0x4e, 0x3d,
  0xb2, 0x30, 0xad, 0xbe, 0xbd, 0x7d, 0xda, 0xbd, 0x5a, 0x24, 0xe7, 0xbd,
  0xdc, 0xba, 0x82, 0xbe, 0x14, 0x99, 0xce, 0xbd, 0x75, 0x31, 0x1c, 0xbd,
  0xa8, 0x8a, 0xab, 0x3d, 0x2f, 0x66, 0x16, 0xbe, 0xe0, 0x53, 0xef, 0xbc,
  0xe0, 0xe5, 0xfc, 0xbd, 0xcd, 0x2b, 0xc6, 0xbd, 0x2e, 0x1d, 0xdd, 0xbd,
  0x17, 0xe4, 0x35, 0xbe, 0xe7, 0xba, 0x81, 0xbd, 0x47, 0xc3, 0xa2, 0x3d,
  0x66, 0x54, 0x9a, 0x3c, 0x02, 0x27, 0x0b, 0xbd, 0x02, 0x7b, 0xee, 0x3d,
  0x72, 0x84, 0x31, 0xbe, 0x48, 0x2d, 0x04, 0xbe, 0xd1, 0xa8, 0xa9, 0x3d,
  0xea, 0xd6, 0x8f, 0xbe, 0xb4, 0x01, 0x40, 0xbe, 0x99, 0xbe, 0x5c, 0xbe,
  0x0c, 0x58, 0x30, 0x3d, 0x5a, 0x0d, 0x4e, 0x3b, 0xc3, 0xa3, 0xa0, 0x3c,
  0x82, 0xce, 0x13, 0xbe, 0x55, 0x5f, 0x00, 0xbe, 0x28, 0x35, 0x03, 0x3d,
  0x32, 0x53, 0x5d, 0x3d, 0x69, 0x5c, 0x83, 0x3d, 0xf4, 0x09, 0x57, 0xbe,
  0x03, 0xf8, 0xa5, 0x3c, 0x28, 0xdc, 0x32, 0xbe, 0xb4, 0xbd, 0x4b, 0xbe,
  0x68, 0xb7, 0x4a, 0xbd, 0x37, 0x86, 0x05, 0xbd, 0xb0, 0x2c, 0x8e, 0xbd,
  0x3b, 0x9e, 0x8c, 0xbe, 0xf2, 0xd9, 0x00, 0xbe, 0xfe, 0x13, 0x4e, 0x3b,
  0x3e, 0x2e, 0x8a, 0x3d, 0x7b, 0xea, 0xe0, 0xbd, 0xbb, 0xb1, 0x22, 0xbe,
  0x9d, 0x2d, 0x63, 0xbd, 0x33, 0x4e, 0x2e, 0xbe, 0xd3, 0x71, 0xd6, 0x3c,
  0x7f, 0x6c, 0x1c, 0xbe, 0x84, 0xda, 0x3f, 0xbe, 0x42, 0xc3, 0x32, 0xbe,
  0x8f, 0xb6, 0x87, 0xbe, 0x13, 0x34, 0xc4, 0x3c, 0x21, 0x23, 0x5e, 0x3c,
  0xc3, 0xa2, 0x06, 0xbe, 0x5d, 0xe9, 0x81, 0xbd, 0x24, 0x73, 0x4e, 0x3d,
  0x28, 0x9f, 0xf2, 0x3c, 0x86, 0x00, 0xf8, 0xbd, 0xdc, 0x0b, 0x99, 0xbe,
  0x39, 0x7e, 0x4e, 0xbe, 0x08, 0xa9, 0x5c, 0xbd, 0x4d, 0xaa, 0xa3, 0x3d,
  0xdd, 0x84, 0x94, 0xbc, 0x31, 0x51, 0xff, 0xbd, 0x85, 0xe0, 0xfa, 0xbd,
  0x67, 0xad, 0x41, 0xbe, 0x10, 0x38, 0xac, 0xbd, 0x5e, 0xb7, 0xe9, 0x3b,
  0xbb, 0x62, 0x69, 0xbe, 0x38, 0x5e, 0x2b, 0xbe, 0xbf, 0xec, 0xd4, 0xbe,
  0x1a, 0x1b, 0xd2, 0x3d, 0x57, 0xcc, 0x6f, 0xbd, 0x6b, 0x38, 0x87, 0x3c,
  0x55, 0x36, 0xab, 0xbe, 0x7e, 0xaa, 0xf1, 0xbd, 0xf5, 0xc4, 0x76, 0x3d,
  0xde, 0xc7, 0x37, 0x3c, 0xd7, 0x81, 0x62, 0x3b, 0xad, 0x61, 0xae, 0xbe,
  0x0e, 0x53, 0x05, 0x3e, 0xa1, 0x39, 0x50, 0xbe, 0x1b, 0x92, 0xc5, 0xbc,
  0x21, 0xe8, 0xc6, 0x3c, 0x81, 0x39, 0x84, 0xbe, 0xad, 0x28, 0xa9, 0x3b,
  0x8a, 0xba, 0x50, 0xbd, 0xb8, 0x91, 0xb8, 0x3c, 0x7a, 0x78, 0x02, 0x3e,
  0xfc, 0x37, 0x1e, 0xbe, 0xc5, 0xd6, 0x42, 0xbe, 0x32, 0xdf, 0xb4, 0xbd,
  0x0a, 0x09, 0xb9, 0x3d, 0x13, 0xbd, 0x06, 0x3d, 0x0f, 0xa0, 0x13, 0x3e,
  0x6f, 0x54, 0x6b, 0xbe, 0x7b, 0x26, 0x28, 0xbe, 0x13, 0xad, 0x78, 0xbc,
  0x0d, 0x2d, 0x6e, 0xbe, 0xa6, 0x3e, 0x51, 0xbd, 0x69, 0x41, 0x09, 0x3c,
  0x4c, 0x4d, 0x0b, 0xbe, 0x7b, 0xc5, 0x6d, 0xbd, 0xd0, 0x11, 0x07, 0xbd,
  0xd5, 0x3b, 0x4c, 0xbe, 0x0e, 0x3d, 0x29, 0xbe, 0x02, 0x4a, 0x8c, 0xbe,
  0xb3, 0x6d, 0x8a, 0xbe, 0x97, 0x00, 0x8b, 0xbd, 0x9b, 0xbb, 0x29, 0xbe,
  0x6c, 0x07, 0x8c, 0x3d, 0x9c, 0xd9, 0x8d, 0xbe, 0xaa, 0xfc, 0x16, 0xbe,
  0xf6, 0xd0, 0x8e, 0x3d, 0x99, 0xe1, 0x2b, 0xbd, 0xe2, 0x4d, 0x55, 0xbc,
  0xec, 0x5d, 0x8f, 0xbc, 0x9c, 0xf6, 0x6c, 0xbd, 0x40, 0x28, 0x3e, 0xbe,
  0x4c, 0x00, 0x97, 0x3d, 0x21, 0xcd, 0xf3, 0xbd, 0x58, 0x9a, 0x4d, 0xbc,
  0x3e, 0x52, 0x02, 0xbe, 0xf4, 0x58, 0x94, 0xbd, 0xc5, 0x87, 0x14, 0xbd,
  0x54, 0x44, 0x15, 0xbb, 0xf3, 0x9e, 0x16, 0xbf, 0xa6, 0x06, 0xa5, 0x3b,
  0xea, 0x47, 0x87, 0xbe, 0xfb, 0x2c, 0x1b, 0xbe, 0xfc, 0x53, 0x0e, 0xbe,
  0x3e, 0x6e, 0x20, 0xbe, 0x00, 0x3d, 0x3c, 0xbe, 0xa1, 0xcd, 0x8b, 0xbe,
  0x21, 0xfc, 0x4f, 0xbe, 0x46, 0xc5, 0xe2, 0xbd, 0x29, 0x19, 0xf5, 0xbd,
  0x7d, 0x87, 0x3f, 0xbc, 0xc8, 0xaf, 0x80, 0xbe, 0x8f, 0x76, 0xa4, 0x3e,
  0xe7, 0x64, 0x82, 0x3e, 0xac, 0xd9, 0xdb, 0x3e, 0xa2, 0xa1, 0x7e, 0x3c,
  0xee, 0x47, 0x2f, 0xbd, 0x83, 0x7b, 0x03, 0x3e, 0xf8, 0x9a, 0x25, 0x3e,
  0xad, 0xad, 0x3f, 0xbe, 0x1d, 0x50, 0x9c, 0x3e, 0xa7, 0xce, 0xa5, 0x3b,
  0x8c, 0x9c, 0x8d, 0xbe, 0xdf, 0xec, 0x86, 0xbe, 0x89, 0xc2, 0x1e, 0x3e,
  0x7d, 0x30, 0x14, 0x3e, 0xfb, 0xb8, 0x11, 0x3e, 0x8f, 0x22, 0x2c, 0xbf,
  0x34, 0x90, 0x81, 0xbd, 0x39, 0x62, 0x69, 0x3e, 0xfb, 0x68, 0x2a, 0xbd,
  0xb3, 0xca, 0x74, 0x3c, 0x87, 0xdb, 0xa1, 0xbd, 0xa3, 0xf0, 0x89, 0xbe,
  0xe5, 0x53, 0x4f, 0xbe, 0x76, 0xa9, 0xa2, 0xbd, 0x46, 0x44, 0x36, 0x3e,
  0x3d, 0x16, 0x80, 0x3a, 0xa5, 0xe9, 0x5f, 0xbe, 0x7e, 0xef, 0xe6, 0xbe,
  0xef, 0xd9, 0x85, 0x39, 0x49, 0x6a, 0x8e, 0x3e, 0xc6, 0x46, 0x90, 0xbc,
  0x14, 0xcb, 0xc0, 0xbf, 0x02, 0xc8, 0xb1, 0x3d, 0xa4, 0x58, 0x74, 0x3e,
  0x0e, 0x6d, 0x15, 0xbe, 0xe6, 0x32, 0x40, 0x3d, 0xda, 0x40, 0xfd, 0xbb,
  0xd4, 0x7e, 0x37, 0xbe, 0xf0, 0x44, 0xe0, 0xbd, 0x83, 0xa4, 0x17, 0xbe,
  0x2b, 0x41, 0xf8, 0x3d, 0x9c, 0xbd, 0xcb, 0xbb, 0x29, 0x2b, 0x48, 0xbe,
  0x1f, 0xaa, 0x96, 0xbe, 0x0b, 0xdf, 0x23, 0xbd, 0x1f, 0x2f, 0xb1, 0x3d,
  0x96, 0x9e, 0x31, 0x3b, 0x9f, 0x88, 0x8d, 0xbf, 0x8d, 0x61, 0x98, 0x3d,
  0x39, 0x7e, 0x5b, 0x3e, 0x96, 0x38, 0x15, 0xbe, 0x67, 0x8c, 0xd5, 0xbb,
  0x47, 0x1d, 0xc8, 0xbc, 0xd3, 0xbf, 0xa0, 0xbe, 0xff, 0xcf, 0xee, 0xbb,
  0xb8, 0x76, 0x86, 0xbe, 0x86, 0x41, 0xc4, 0x3d, 0x16, 0x09, 0xed, 0x3d,
  0xda, 0xb8, 0x04, 0xbc, 0x3f, 0xab, 0x32, 0xbd, 0x5b, 0x45, 0x01, 0xbd,
  0xe8, 0x60, 0xbe, 0xbd, 0x2d, 0xa4, 0x44, 0x3d, 0x1e, 0x73, 0x6b, 0xbf,
  0x98, 0xab, 0x2f, 0x3e, 0xb6, 0x41, 0x0c, 0x3e, 0x6d, 0x6a, 0xae, 0xbd,
  0x74, 0x22, 0x17, 0xbc, 0xd8, 0x95, 0xb4, 0x3c, 0x17, 0x76, 0x57, 0xbe,
  0x04, 0x01, 0xa3, 0xbc, 0x82, 0xbf, 0x00, 0xbf, 0xff, 0xc3, 0x19, 0x3d,
  0x50, 0x8d, 0x3c, 0x3d, 0xb3, 0x15, 0x6c, 0x3e, 0xc7, 0x2f, 0x1d, 0xbf,
  0xac, 0x02, 0xae, 0xbd, 0x11, 0x09, 0xb0, 0x3e, 0x4f, 0x8e, 0x0f, 0xbd,
  0xdb, 0x88, 0x90, 0xbf, 0xf8, 0xf6, 0x04, 0x3e, 0xa6, 0x9e, 0x4f, 0x3e,
  0x3d, 0x8e, 0x8b, 0xbd, 0x4c, 0x2c, 0x5a, 0x3d, 0x6a, 0x60, 0x36, 0x3e,
  0xe8, 0xc0, 0x67, 0xbd, 0xdd, 0xd6, 0x08, 0x3e, 0xa4, 0x5d, 0xd7, 0xbe,
  0x00, 0x72, 0xbe, 0xbd, 0xd7, 0xe8, 0x8c, 0x3d, 0x66, 0x31, 0x34, 0x3e,
  0xbf, 0x44, 0xa7, 0x3c, 0x0c, 0x12, 0x53, 0x3d, 0xbe, 0x6a, 0x87, 0x3e,
  0x6e, 0x23, 0xd0, 0x3d, 0xaa, 0xde, 0x3b, 0xbf, 0x1e, 0xc7, 0xa7, 0x39,
  0xdb, 0x35, 0x16, 0x3e, 0xb7, 0x78, 0xfc, 0xbd, 0x8e, 0x30, 0x35, 0xbc,
  0x0b, 0x5a, 0xc3, 0x3d, 0x7e, 0xc6, 0x88, 0xbe, 0xf1, 0x76, 0x6c, 0xbd,
  0xb4, 0x0f, 0x00, 0xbf, 0xe0, 0xd9, 0xad, 0xbd, 0xfe, 0x8f, 0x8d, 0xbd,
  0xf4, 0x83, 0x74, 0x3d, 0x67, 0x65, 0x23, 0xbe, 0xa4, 0x36, 0x05, 0xbd,
  0xa6, 0x31, 0x16, 0x3e, 0x0a, 0x37, 0xd8, 0x3b, 0x09, 0x94, 0x55, 0xbf,
  0xa3, 0x4a, 0xf9, 0x3d, 0xbc, 0xc4, 0xc3, 0xbd, 0xc4, 0x5a, 0xb7, 0xbd,
  0x8a, 0x06, 0x8e, 0x3d, 0x1c, 0x3f, 0x9c, 0x3b, 0x2c, 0xc3, 0xfd, 0xbd,
  0xac, 0xfd, 0x64, 0x3e, 0x41, 0xad, 0xcf, 0xbe, 0xc9, 0xe4, 0x13, 0xbc,
  0x2d, 0xe4, 0x7f, 0xbd, 0x5b, 0xee, 0xaf, 0x3c, 0x0b, 0xa1, 0xa6, 0xbe,
  0x64, 0x54, 0xb2, 0x3d, 0xe1, 0xbe, 0x0d, 0x3e, 0xe3, 0x3b, 0x14, 0x3e,
  0xf6, 0x08, 0x53, 0xbf, 0x38, 0xdf, 0x41, 0x3d, 0x67, 0x16, 0x75, 0x3e,
  0x9a, 0x4e, 0x44, 0x3d, 0xb6, 0x47, 0xe7, 0x3c, 0xb2, 0xb7, 0x4a, 0x3d,
  0x7d, 0x56, 0x4c, 0x3d, 0x77, 0x77, 0x05, 0xbe, 0xdd, 0x5d, 0x05, 0xbf,
  0x85, 0x74, 0xba, 0xbd, 0x7f, 0xd7, 0x51, 0xbd, 0x84, 0xeb, 0x01, 0xbd,
  0xba, 0x9b, 0x87, 0xbe, 0xf1, 0x21, 0xa6, 0x3d, 0xc1, 0xf5, 0x68, 0x3e,
  0x58, 0xc2, 0x0d, 0x3e, 0x5c, 0x46, 0x7c, 0xbf, 0x91, 0xeb, 0x2c, 0x3e,
  0xbc, 0xca, 0x85, 0x3e, 0x85, 0x21, 0x48, 0xbd, 0xad, 0xac, 0x52, 0x3d,
  0x29, 0x38, 0x78, 0xbd, 0x48, 0xe2, 0x90, 0xba, 0x07, 0x60, 0x10, 0xbe,
  0x8b, 0x08, 0x5a, 0xbe, 0x7a, 0x9a, 0x44, 0x3c, 0xc6, 0xf6, 0xa7, 0x3d,
  0x2b, 0x1a, 0x3f, 0x3d, 0xc1, 0x95, 0x0c, 0xbf, 0xd9, 0x25, 0x02, 0x3e,
  0xaa, 0x52, 0x03, 0x3e, 0x67, 0xf7, 0xfb, 0xbb, 0xf0, 0x63, 0x79, 0xbf,
  0xc0, 0x22, 0x2e, 0xbd, 0x80, 0x1e, 0x57, 0x3e, 0x23, 0xcb, 0x67, 0xbd,
  0x9d, 0x8e, 0x00, 0x3d, 0xda, 0xf0, 0xd9, 0x3d, 0xdf, 0x9e, 0xdd, 0xbc,
  0x36, 0xe6, 0xb2, 0xbc, 0x48, 0x22, 0x10, 0xbe, 0x0e, 0x65, 0xdd, 0x3d,
  0x04, 0x56, 0x91, 0x3d, 0xa6, 0x84, 0xba, 0x3d, 0x81, 0x0f, 0xdc, 0xbe,
  0x2d, 0x9c, 0x77, 0x3d, 0x89, 0x21, 0x2c, 0x3e, 0x07, 0x83, 0xd7, 0x3b,
  0xff, 0x6f, 0x35, 0xbf, 0xb2, 0x77, 0x89, 0xbd, 0x50, 0x2f, 0x38, 0x3e,
  0xf0, 0xc5, 0xc5, 0x3c, 0x14, 0xf4, 0x3c, 0x3d, 0x6b, 0x64, 0x0e, 0xbd,
  0x6f, 0x8d, 0x53, 0x3c, 0xdd, 0x4a, 0x45, 0xbe, 0x58, 0xa3, 0xa4, 0x3d,
  0xd3, 0x59, 0xe6, 0x3c, 0x1b, 0xb4, 0x89, 0xbc, 0x86, 0x93, 0x45, 0x3e,
  0x49, 0x9a, 0xb7, 0xbe, 0xc3, 0x0c, 0x14, 0x3d, 0x13, 0x50, 0x83, 0x3d,
  0xdf, 0xa1, 0x7a, 0xbd, 0x32, 0xd4, 0xfa, 0xbe, 0x95, 0x43, 0x5f, 0x3c,
  0x60, 0x33, 0xf4, 0x3d, 0x9e, 0x73, 0xcd, 0xbd, 0x0b, 0x97, 0x19, 0xbd,
  0xa2, 0x17, 0x83, 0xbd, 0x72, 0xa0, 0x45, 0xbe, 0xc4, 0xb0, 0x0d, 0xbe,
  0x0f, 0xbf, 0x06, 0xbf, 0x20, 0x33, 0x5a, 0xbe, 0xcb, 0xcb, 0xc6, 0xbd,
  0x57, 0xfb, 0x98, 0x3e, 0x9e, 0xdd, 0x16, 0xbe, 0xdf, 0x24, 0x57, 0x3e,
  0x4b, 0x76, 0x5b, 0x3d, 0x7b, 0x94, 0xb9, 0xbd, 0x28, 0x8e, 0xeb, 0xbe,
  0xb2, 0xf5, 0x33, 0x3d, 0x4e, 0x2b, 0x08, 0x3e, 0x30, 0x2c, 0x63, 0xbc,
  0x1b, 0x4f, 0x1d, 0x3d, 0x40, 0xc7, 0x7e, 0x3e, 0x76, 0x0b, 0x03, 0xbe,
  0x45, 0xe4, 0x10, 0x3d, 0xf4, 0xb7, 0xad, 0xbe, 0xff, 0x67, 0x1b, 0xbe,
  0xee, 0x3d, 0x12, 0xbd, 0x00, 0x4a, 0x65, 0x3e, 0x7a, 0xfa, 0x2b, 0x3e,
  0xad, 0x70, 0x5f, 0x3e, 0x6f, 0xca, 0x6b, 0x3d, 0xdd, 0x18, 0x5d, 0x3e,
  0x0c, 0x51, 0xc7, 0xbe, 0xde, 0xf4, 0xff, 0xff, 0x04, 0x00, 0x00, 0x00,
  0x08, 0x00, 0x00, 0x00, 0xff, 0xff, 0xff, 0xff, 0xe0, 0x00, 0x00, 0x00,
  0xf2, 0xf4, 0xff, 0xff, 0x04, 0x00, 0x00, 0x00, 0x10, 0x00, 0x00, 0x00,
  0x03, 0xa9, 0xd3, 0xbf, 0xfd, 0x22, 0xbc, 0xbd, 0x88, 0x3f, 0x25, 0xbf,
  0xef, 0x28, 0xe4, 0x3e, 0x0e, 0xf5, 0xff, 0xff, 0x04, 0x00, 0x00, 0x00,
  0x40, 0x00, 0x00, 0x00, 0xa0, 0x4f, 0x87, 0x40, 0x45, 0x3f, 0x88, 0xbf,
  0x29, 0x27, 0x24, 0xbf, 0xb9, 0xb2, 0x4f, 0xbf, 0xf2, 0xde, 0x76, 0xbf,
  0x5f, 0x97, 0x06, 0xbf, 0xaf, 0x03, 0x4d, 0xbd, 0x97, 0x7f, 0x1c, 0xbe,
  0xa4, 0xef, 0x4f, 0xbf, 0x44, 0x9c, 0xcf, 0xbc, 0xbc, 0x89, 0x67, 0x3e,
  0x71, 0x6f, 0xe3, 0x3d, 0xfd, 0x2c, 0xd5, 0x3f, 0xd2, 0xde, 0xdd, 0x3e,
  0x90, 0x03, 0xf8, 0x3d, 0x0e, 0x6b, 0x0a, 0x3e, 0x5a, 0xf5, 0xff, 0xff,
  0x04, 0x00, 0x00, 0x00, 0x00, 0x08, 0x00, 0x00, 0xcb, 0x44, 0x51, 0xbf,
  0xaa, 0x66, 0x0b, 0xbf, 0x06, 0xcd, 0x70, 0x3e, 0x3c, 0xf1, 0xb5, 0xbe,
  0x51, 0xe8, 0x6d, 0xbe, 0xc7, 0x01, 0xc5, 0xbe, 0xc8, 0x1f, 0x0e, 0xbf,
  0x90, 0xa8, 0x18, 0xbe, 0x26, 0x72, 0x43, 0xbc, 0x8a, 0x10, 0x1f, 0x3e,
  0x9e, 0xa3, 0x9e, 0xbc, 0xfd, 0xfd, 0x08, 0x3e, 0xef, 0xaa, 0x07, 0xbe,
  0x18, 0xa3, 0x35, 0xbe, 0x8b, 0x2a, 0x7d, 0xbe, 0xea, 0xd8, 0x6b, 0x3e,
  0x43, 0x66, 0x69, 0xbe, 0xf9, 0xc5, 0xcf, 0x3d, 0xe8, 0xe2, 0x88, 0x3c,
  0xe3, 0x12, 0x38, 0x3e, 0x91, 0x27, 0x0e, 0xbe, 0xe3, 0x5a, 0x95, 0xbd,
  0x31, 0xb0, 0xa8, 0xbd, 0x62, 0x33, 0x92, 0x3b, 0xa8, 0xf4, 0xba, 0xbd,
  0x7f, 0xa1, 0xa8, 0x3e, 0xa4, 0xae, 0x2c, 0xbd, 0x5a, 0xed, 0x39, 0x3e,
  0x8d, 0x0d, 0x54, 0xbd, 0x66, 0xa6, 0x46, 0x3e, 0x48, 0x5f, 0xd9, 0x3d,
  0x05, 0x18, 0x82, 0xba, 0x2a, 0x19, 0x0e, 0xbe, 0xad, 0x71, 0x81, 0xbe,
  0xc4, 0x75, 0x07, 0xbf, 0xfa, 0xfb, 0xaa, 0xbe, 0xd3, 0x54, 0x47, 0xbe,
  0x8c, 0xac, 0x7e, 0xbe, 0x08, 0x22, 0xe1, 0xbd, 0x93, 0x07, 0xce, 0xbe,
  0x0a, 0x0d, 0x25, 0xbe, 0xfb, 0xc7, 0x97, 0xbc, 0xde, 0x57, 0xe4, 0xbd,
  0xfe, 0xd3, 0xe3, 0x3c, 0x0c, 0x56, 0x22, 0x3e, 0x37, 0x5d, 0xf9, 0xbd,
  0xb4, 0x1c, 0xd9, 0xbd, 0x56, 0x89, 0xb7, 0xbe, 0x15, 0x11, 0x46, 0xbe,
  0x9e, 0x53, 0xaf, 0x3d, 0x4b, 0x14, 0x8e, 0xbe, 0x13, 0x35, 0x8a, 0xbd,
  0x34, 0x18, 0xb1, 0xbd, 0x16, 0xbf, 0xf5, 0xbc, 0x42, 0x80, 0x42, 0xbd,
  0xb4, 0x27, 0x1d, 0xbd, 0x4e, 0xdf, 0x35, 0xbe, 0xc7, 0x6e, 0xc8, 0x3c,
  0x77, 0x18, 0x53, 0x3e, 0x90, 0x4b, 0x08, 0x3d, 0x60, 0x67, 0x02, 0x3e,
  0x3d, 0x02, 0xd8, 0xbd, 0xb3, 0x21, 0x7f, 0xbe, 0xe5, 0x96, 0x06, 0xbe,
  0x96, 0x5d, 0x4e, 0xbd, 0x6c, 0x47, 0x17, 0xbc, 0x06, 0x2e, 0x48, 0x3d,
  0xda, 0xf1, 0x73, 0xbe, 0x90, 0x98, 0x0b, 0xbe, 0x3b, 0xb6, 0x9d, 0xbb,
  0x74, 0x27, 0xbd, 0xbb, 0x57, 0xa9, 0x63, 0xbe, 0x9f, 0xe0, 0x22, 0x3e,
  0x33, 0xfd, 0xb6, 0x3d, 0x34, 0x7b, 0x02, 0xbe, 0x9a, 0x47, 0x50, 0xbe,
  0x2e, 0x1a, 0x52, 0xbe, 0xa3, 0x7f, 0x63, 0xbe, 0xf4, 0xca, 0x33, 0xbe,
  0x30, 0x68, 0x9a, 0x3e, 0xea, 0xe6, 0x93, 0x3a, 0xd7, 0x6f, 0x16, 0x3e,
  0x8b, 0x64, 0xd7, 0xbd, 0x1e, 0x67, 0xd2, 0xbd, 0x83, 0xb3, 0xbf, 0xbe,
  0x75, 0x81, 0x36, 0xbe, 0xf8, 0x1a, 0xc1, 0xbd, 0xf7, 0x94, 0x56, 0x3d,
  0x1f, 0xcc, 0x16, 0x3e, 0x3e, 0x66, 0x1d, 0x3e, 0x1d, 0x87, 0x44, 0xbd,
  0x65, 0x5e, 0x3e, 0x3d, 0x88, 0x08, 0x47, 0xbe, 0xc4, 0xec, 0x3e, 0xbe,
  0xed, 0x3a, 0x8a, 0xbd, 0xa4, 0xc7, 0x0a, 0x3e, 0x05, 0xb5, 0x46, 0x3e,
  0xe5, 0xeb, 0x73, 0x3e, 0xda, 0x6f, 0x00, 0x3e, 0x82, 0xfe, 0x6e, 0x3d,
  0x1c, 0x44, 0x55, 0x3c, 0x67, 0x6c, 0x43, 0x3e, 0xfe, 0x10, 0x94, 0x3e,
  0xf9, 0x2a, 0x39, 0xbe, 0x0a, 0x41, 0x00, 0x3e, 0x14, 0x76, 0x8f, 0x3d,
  0xa5, 0x21, 0x2a, 0x3e, 0x94, 0x48, 0x83, 0xbd, 0xee, 0x9d, 0x3a, 0x3e,
  0x8e, 0x2e, 0x81, 0xbd, 0xc3, 0x05, 0x9c, 0xbd, 0x09, 0xfd, 0x5c, 0xbe,
  0xb5, 0x34, 0x56, 0xbe, 0x5d, 0x03, 0x8c, 0xbd, 0xc2, 0xc0, 0xf1, 0x3c,
  0x72, 0x9f, 0x07, 0xbe, 0xf9, 0xc4, 0x59, 0x3d, 0x90, 0x65, 0x75, 0xbe,
  0x5d, 0xa3, 0x6a, 0xbe, 0x68, 0x99, 0xd2, 0xbe, 0x9a, 0xcc, 0xb9, 0xbe,
  0x86, 0x6e, 0x79, 0xbe, 0xce, 0x17, 0x0d, 0x3e, 0xd0, 0x8a, 0x05, 0xbe,
  0x73, 0x35, 0x37, 0x39, 0xd7, 0x98, 0x57, 0xbe, 0x0d, 0x27, 0x82, 0xbe,
  0xbd, 0xca, 0xd5, 0xbe, 0xe6, 0x68, 0x4b, 0x3e, 0x05, 0xd3, 0xa7, 0xbe,
  0x3e, 0x3a, 0x3a, 0xbd, 0x19, 0xa6, 0xae, 0xbe, 0x02, 0xe0, 0x43, 0x3e,
  0x25, 0xe3, 0xe7, 0x3e, 0x96, 0x39, 0xd9, 0x3d, 0x74, 0x6f, 0x6d, 0xbd,
  0x68, 0x13, 0xe5, 0x3d, 0x9b, 0x4e, 0xee, 0xbe, 0x25, 0xe5, 0xd7, 0xbd,
  0xd7, 0xcd, 0xda, 0xbe, 0xaf, 0xdd, 0xe4, 0xba, 0xe8, 0x77, 0x49, 0x3e,
  0x17, 0x41, 0x62, 0x3e, 0x0c, 0xb2, 0x4c, 0xbd, 0x29, 0x5e, 0xb0, 0xbe,
  0x5f, 0xd1, 0xbc, 0xbe, 0x35, 0x50, 0xc3, 0x3c, 0x70, 0x1b, 0x21, 0xbf,
  0x2d, 0xcd, 0xba, 0xbe, 0xe7, 0x2d, 0xd9, 0xbe, 0xdc, 0x93, 0x6d, 0xbe,
  0xe2, 0xb3, 0xa5, 0x3d, 0xf1, 0x9f, 0x42, 0xbe, 0x7c, 0x90, 0xaa, 0xbf,
  0x90, 0xda, 0xa7, 0x3e, 0xba, 0x5e, 0x4e, 0x3d, 0x4b, 0x4a, 0x86, 0x3d,
  0xac, 0x6e, 0x0d, 0xbf, 0xeb, 0xb8, 0xe7, 0xbe, 0xe3, 0xa8, 0x87, 0xbd,
  0xc5, 0xbc, 0xd3, 0x3d, 0x7f, 0x41, 0x4d, 0x3c, 0xa6, 0xcf, 0x28, 0x3d,
  0xd0, 0x6f, 0xa3, 0xbd, 0x7a, 0x00, 0x5d, 0xbe, 0xa5, 0x40, 0x01, 0xbe,
  0xce, 0xe8, 0xd7, 0xbd, 0x34, 0xd0, 0x37, 0x3e, 0x1f, 0xd7, 0xf4, 0x3e,
  0x01, 0x06, 0x25, 0xbe, 0xc0, 0x0b, 0x56, 0xbe, 0x03, 0x21, 0xa0, 0xbd,
  0x52, 0x3a, 0xe9, 0xbb, 0x07, 0x5c, 0x34, 0xbe, 0x71, 0x04, 0x57, 0xbe,
  0x8d, 0x11, 0x3c, 0x3e, 0xa0, 0x1e, 0x38, 0x3e, 0xa2, 0x0c, 0x3a, 0xbe,
  0x8f, 0xb7, 0x2d, 0xbf, 0x51, 0x6a, 0xcf, 0x3d, 0x8b, 0x08, 0xb9, 0x3e,
  0x59, 0x4a, 0xe4, 0xbd, 0x6f, 0xe7, 0x42, 0xbe, 0xac, 0x0f, 0x17, 0xbe,
  0xec, 0x17, 0x99, 0x3e, 0x2d, 0xa5, 0x74, 0xbe, 0x84, 0xd8, 0xf0, 0xbe,
  0xe1, 0x9a, 0xd7, 0x3d, 0x4c, 0xa8, 0xef, 0xbc, 0x8b, 0x4c, 0xf4, 0x3d,
  0x03, 0x42, 0x3e, 0x3c, 0x22, 0x05, 0x1c, 0xbe, 0xe3, 0x05, 0xf8, 0x3d,
  0x2d, 0xd4, 0xa0, 0xbd, 0x77, 0x60, 0x1a, 0x3e, 0x0f, 0x2e, 0x8e, 0x3e,
  0x6d, 0xef, 0x4c, 0xbd, 0xf1, 0x1d, 0xb1, 0xbe, 0xc6, 0x86, 0xd3, 0xbd,
  0xed, 0xfc, 0xe4, 0x3e, 0x95, 0xba, 0x99, 0x3e, 0x1d, 0x62, 0x73, 0xbd,
  0x89, 0x84, 0x23, 0x3d, 0x0e, 0x40, 0x94, 0xbc, 0xaf, 0xc5, 0x77, 0xbd,
  0x03, 0x9a, 0xc3, 0xbe, 0x04, 0xcf, 0xd9, 0xbe, 0x37, 0x54, 0xba, 0xbd,
  0x99, 0xa4, 0x6e, 0x3e, 0xb0, 0x4a, 0x84, 0xbe, 0xa0, 0x3c, 0x88, 0x3b,
  0xd3, 0x32, 0xa5, 0xbe, 0x59, 0xaf, 0xa0, 0xbd, 0xd8, 0x18, 0xeb, 0xbe,
  0x1b, 0x3e, 0x38, 0xbf, 0x69, 0xf6, 0x1d, 0xbe, 0x07, 0xac, 0x09, 0x3e,
  0x3d, 0xc8, 0x89, 0x3c, 0x27, 0x6d, 0x3e, 0xbe, 0x0b, 0xcb, 0xd3, 0x3c,
  0x18, 0x48, 0x40, 0xbe, 0x50, 0x94, 0x90, 0xbe, 0x34, 0x80, 0x09, 0xbf,
  0x4b, 0x8e, 0xf9, 0xbd, 0x80, 0x43, 0xc1, 0x3d, 0x85, 0x08, 0x16, 0x3f,
  0x32, 0xce, 0x48, 0xbe, 0x47, 0x44, 0x29, 0xbe, 0xfc, 0x63, 0x61, 0x3c,
  0x34, 0xe2, 0x48, 0xbe, 0x12, 0x09, 0x99, 0xbe, 0x20, 0xfa, 0x1a, 0xbd,
